{
  "version": "1.0",
  "truncation": null,
  "padding": null,
  "added_tokens": [
    {
      "id": 0,
      "content": "<bos>",
      "single_word": false,
      "lstrip": false,
      "rstrip": false,
      "normalized": false,
      "special": true
    },
    {
      "id": 1,
      "content": "<eos>",
      "single_word": false,
      "lstrip": false,
      "rstrip": false,
      "normalized": false,
      "special": true
    },
    {
      "id": 2,
      "content": "<pad>",
      "single_word": false,
      "lstrip": false,
      "rstrip": false,
      "normalized": false,
      "special": true
    },
    {
      "id": 3,
      "content": "<unk>",
      "single_word": false,
      "lstrip": false,
      "rstrip": false,
      "normalized": false,
      "special": true
    }
  ],
  "normalizer": null,
  "pre_tokenizer": {
    "type": "ByteLevel",
    "add_prefix_space": true,
    "trim_offsets": true,
    "use_regex": true
  },
  "post_processor": {
    "type": "TemplateProcessing",
    "single": [
      {
        "Sequence": {
          "id": "A",
          "type_id": 0
        }
      }
    ],
    "pair": [
      {
        "Sequence": {
          "id": "A",
          "type_id": 0
        }
      },
      {
        "Sequence": {
          "id": "B",
          "type_id": 1
        }
      }
    ],
    "special_tokens": {}
  },
  "decoder": {
    "type": "ByteLevel",
    "add_prefix_space": true,
    "trim_offsets": true,
    "use_regex": true
  },
  "model": {
    "type": "BPE",
    "dropout": null,
    "unk_token": null,
    "continuing_subword_prefix": null,
    "end_of_word_suffix": null,
    "fuse_unk": false,
    "byte_fallback": false,
    "ignore_merges": false,
    "vocab": {
      "<bos>": 0,
      "<eos>": 1,
      "<pad>": 2,
      "<unk>": 3,
      "!": 4,
      "\"": 5,
      "#": 6,
      "%": 7,
      "&": 8,
      "'": 9,
      "(": 10,
      ")": 11,
      "*": 12,
      "+": 13,
      ",": 14,
      "-": 15,
      ".": 16,
      "/": 17,
      "0": 18,
      "1": 19,
      "2": 20,
      "3": 21,
      "4": 22,
      "5": 23,
      "6": 24,
      "7": 25,
      "8": 26,
      "9": 27,
      ":": 28,
      ";": 29,
      "<": 30,
      "=": 31,
      ">": 32,
      "?": 33,
      "[": 34,
      "\\": 35,
      "]": 36,
      "^": 37,
      "_": 38,
      "`": 39,
      "{": 40,
      "|": 41,
      "}": 42,
      "~": 43,
      "¡": 44,
      "¢": 45,
      "£": 46,
      "¤": 47,
      "¥": 48,
      "¦": 49,
      "§": 50,
      "¨": 51,
      "©": 52,
      "ª": 53,
      "«": 54,
      "¬": 55,
      "®": 56,
      "¯": 57,
      "°": 58,
      "±": 59,
      "²": 60,
      "³": 61,
      "´": 62,
      "µ": 63,
      "¶": 64,
      "·": 65,
      "¸": 66,
      "¹": 67,
      "º": 68,
      "»": 69,
      "¼": 70,
      "½": 71,
      "¾": 72,
      "¿": 73,
      "Â": 74,
      "Ã": 75,
      "Ð": 76,
      "Ñ": 77,
      "â": 78,
      "ā": 79,
      "ć": 80,
      "Ċ": 81,
      "ď": 82,
      "Ġ": 83,
      "Ģ": 84,
      "ģ": 85,
      "Ĥ": 86,
      "ĥ": 87,
      "Ħ": 88,
      "ħ": 89,
      "Ĩ": 90,
      "ĩ": 91,
      "Ī": 92,
      "ī": 93,
      "Ĭ": 94,
      "ĭ": 95,
      "Į": 96,
      "į": 97,
      "İ": 98,
      "ı": 99,
      "Ĳ": 100,
      "ĳ": 101,
      "Ĵ": 102,
      "ĵ": 103,
      "Ķ": 104,
      "ķ": 105,
      "ĸ": 106,
      "Ĺ": 107,
      "ĺ": 108,
      "Ļ": 109,
      "ļ": 110,
      "Ľ": 111,
      "ľ": 112,
      "Ŀ": 113,
      "ŀ": 114,
      "Ł": 115,
      "ł": 116,
      "Ń": 117,
      "ĠÐ": 118,
      "Ð¾": 119,
      "Ð°": 120,
      "Ðµ": 121,
      "ÑĤ": 122,
      "Ð¸": 123,
      "Ñģ": 124,
      "Ð¾Ð": 125,
      "Ð½": 126,
      "ÑĢ": 127,
      "Ð»": 128,
      "Ñĥ": 129,
      "Ð°Ð": 130,
      "Ñı": 131,
      "ÐµÐ": 132,
      "ÑĮ": 133,
      "Ñĭ": 134,
      "ĠÑģ": 135,
      "ĠÐ¿": 136,
      "ĠÐ½": 137,
      "ĠÐ²": 138,
      "Ðº": 139,
      "Ñĩ": 140,
      "Ð²": 141,
      "Ð´": 142,
      "ĠÐ¾": 143,
      "ĠÐ¸": 144,
      "Ð¼": 145,
      "Ð°Ð»": 146,
      "ÑĤÐ¾": 147,
      "ĠÐº": 148,
      "ÑĪ": 149,
      "Ð¾Ð²": 150,
      "Ñħ": 151,
      "ÑģÑĤ": 152,
      "ÐµÐ½": 153,
      "ĠÐ´": 154,
      "ĠÐ±": 155,
      "Ð¾Ð»": 156,
      "ĠÑĤ": 157,
      "ÐµÑĢ": 158,
      "ÐµÐ»": 159,
      "³Ð¾": 160,
      "Ġ-": 161,
      "Ñİ": 162,
      "ĠÐ¼": 163,
      "Ð¾Ð¼": 164,
      "Ð½Ð¾": 165,
      "Ð¸Ð»": 166,
      "ĠÑĩ": 167,
      "ÐµÑĤ": 168,
      "Ð°Ðº": 169,
      "ĠÐ¿ÑĢ": 170,
      "ÑĥÐ": 171,
      "ÑĤÑĮ": 172,
      "ĠÐ·": 173,
      "Ð¾Ð´": 174,
      "ĠÐ½Ðµ": 175,
      "Ð¾Ð¹": 176,
      "ĠÑĢ": 177,
      "Ð°Ð·": 178,
      "Ð¿": 179,
      "Ð½Ð°": 180,
      "ĠÐµ": 181,
      "ĠÐ½Ð°": 182,
      "Ð¾ÑĢ": 183,
      "ÑģÑı": 184,
      "Ð·": 185,
      "ÐµÐ¼": 186,
      "Ð½Ð¸": 187,
      "Ð±": 188,
      "Ð¾Ñģ": 189,
      "Ð°Ð¼": 190,
      "Ð¹": 191,
      "ĠÐ³": 192,
      "Ð½Ñĭ": 193,
      "ÑĨ": 194,
      "Ð°Ñģ": 195,
      "Ð°Ð²": 196,
      "ĠÑĥ": 197,
      "Ð¾ÑĤ": 198,
      "Ñī": 199,
      "ÐµÐ´": 200,
      "ĠÐ»": 201,
      "Ð»Ð¸": 202,
      "Ð¾Ð½": 203,
      "Ð°ÑĢ": 204,
      "ĠÐ±Ñĭ": 205,
      "Ð°Ð½": 206,
      "Ð¸ÑĤ": 207,
      "ĠÑĩÑĤÐ¾": 208,
      "Ð¸Ð½": 209,
      "ĠÑ": 210,
      "Ð¾Ð³": 211,
      "ÑģÐº": 212,
      "Ð³": 213,
      "Ð¸Ð²": 214,
      "Ð°ÑĤ": 215,
      "ĠÐ¶": 216,
      "Ð°Ð´": 217,
      "ĠÐ¾ÑĤ": 218,
      "ÐµÐ¹": 219,
      "Ð¾Ð±": 220,
      "Ð°Ñı": 221,
      "Ð¾Ð³Ð¾": 222,
      "Ð¸Ð¼": 223,
      "Ð°ÑĤÑĮ": 224,
      "ĠÐĿ": 225,
      "ĠÑį": 226,
      "ÐµÐ²": 227,
      "ĠÑģÑĤ": 228,
      "ÑģÑĮ": 229,
      "Ð¾Ð¶": 230,
      "Ð¾Ðº": 231,
      "Ð½Ñĥ": 232,
      "ĠÐºÐ°Ðº": 233,
      "ĠÐĴ": 234,
      "ĠÐŁ": 235,
      "Ð¶": 236,
      "ĠÐ¾Ð½": 237,
      "ĠÐ¿Ð¾": 238,
      "ĠÐ²Ñģ": 239,
      "ĠÐ²Ñĭ": 240,
      "ĠÑı": 241,
      "ÐµÐ½Ð¸": 242,
      "Ð³Ð¾": 243,
      "ÑĥÐ´": 244,
      "Ð¾Ð»ÑĮ": 245,
      "ÑĤÐ¾ÑĢ": 246,
      "ÑģÑĤÐ²": 247,
      "ÑĥÐ¶": 248,
      "âĢ": 249,
      "Ð¸Ðº": 250,
      "ĠÑģÐº": 251,
      "Ð¸Ð´": 252,
      "ĠÐŀ": 253,
      "ĠÑħ": 254,
      "ÐµÐ·": 255,
      "ĠÐ±ÑĭÐ»": 256,
      "ĠÐ¡": 257,
      "ĠÑģÐ²": 258,
      "ĠÐ°": 259,
      "ÐµÐ³Ð¾": 260,
      "ĠÐ¾Ð±": 261,
      "ÐµÐ±": 262,
      "Ð»Ñı": 263,
      "Ð¸Ñħ": 264,
      "Ð°Ð»Ð°": 265,
      "ÐºÐ¾": 266,
      "ÐµÐº": 267,
      "ĠÐµÐ³Ð¾": 268,
      "Ð¸Ñĩ": 269,
      "Ð°Ð¶": 270,
      "ĠÐļ": 271,
      "ĠÐĲ": 272,
      "ĠÐ¿Ð¾Ð´": 273,
      "ÑĬ": 274,
      "Ð¾Ð·": 275,
      "ÐºÐ¸": 276,
      "ÐºÐ°": 277,
      "Ð´Ð°": 278,
      "ÑĥÐ³": 279,
      "Ð°Ð»Ð¸": 280,
      "ÐµÐ»ÑĮ": 281,
      "ĠÑģÐ»": 282,
      "ĠâĢ": 283,
      "ÐµÐ¿": 284,
      "ÐµÑģ": 285,
      "Ð¸ÑĤÑĮ": 286,
      "ÑĢÐ°": 287,
      "ĠÑĤÐ°Ðº": 288,
      "ĠÐ¸Ð·": 289,
      "ĠÐ·Ð°": 290,
      "ÐµÑĩ": 291,
      "ĠÐľ": 292,
      "ĠÐ¿ÑĢÐ¸": 293,
      "ÐµÑģÑĤ": 294,
      "ÑĥÑĤ": 295,
      "ĠÐĺ": 296,
      "Ð¾Ñĩ": 297,
      "ĠÐĶ": 298,
      "ĠÑĢÐ°Ð·": 299,
      "Ð½Ðµ": 300,
      "Ð°Ð¼Ð¸": 301,
      "Ð»Ð°": 302,
      "Ð¾Ð²Ð¾ÑĢ": 303,
      "ĠÑįÑĤÐ¾": 304,
      "ÑĥÐ¼": 305,
      "ĠÐºÑĢ": 306,
      "Ð¾ÑģÑĤ": 307,
      "ÐµÑĪ": 308,
      "ÐµÐ½ÑĮ": 309,
      "Ð¸Ð¹": 310,
      "ĠÐ¢": 311,
      "ĠÐ²ÑģÐµ": 312,
      "Ð¾Ð¿": 313,
      "ĠÑĪ": 314,
      "ĠÑĤÐ¾": 315,
      "ĠÐºÐ¾": 316,
      "ĠÑįÑĤ": 317,
      "ÑĭÐ²": 318,
      "ÐµÐ¶": 319,
      "Ð½ÑĭÐ¹": 320,
      "Ð°Ð¿": 321,
      "ĠÑģÐºÐ°Ð·": 322,
      "ÑĭÐ¹": 323,
      "ÐºÑĥ": 324,
      "ĠÑģÐ¿": 325,
      "Ð½Ñı": 326,
      "ĠÐ¿ÐµÑĢ": 327,
      "ĠÐ¾Ð½Ð°": 328,
      "ÑĥÑĪ": 329,
      "ĠâĢĵ": 330,
      "Ð½Ð¾Ð¹": 331,
      "Ð°ÑģÑĮ": 332,
      "ÑĢÐ¸": 333,
      "ĠÑģÐ²Ð¾": 334,
      "ĠÐ½Ð¾": 335,
      "Ð°Ð¹": 336,
      "ÑĥÑĩ": 337,
      "Ð¼Ð¸": 338,
      "ĠÐ»Ð¸": 339,
      "ÑīÐµ": 340,
      "ÑıÑĤ": 341,
      "Ð¾ÑĪ": 342,
      "Ð¸Ð»Ð¸": 343,
      "ÐµÐ½Ð½Ð¾": 344,
      "ÑĦ": 345,
      "ÑĥÐ±": 346,
      "ĠÐ¶Ðµ": 347,
      "Ð°Ð±": 348,
      "ĠÐ¾Ð´": 349,
      "ÑĢÑĥÐ³": 350,
      "Ð¾Ð»ÑĮÐºÐ¾": 351,
      "ÑĥÑİ": 352,
      "Ð¸Ð»Ð°": 353,
      "ĠÐºÐ¾ÑĤÐ¾ÑĢ": 354,
      "ÑĥÐ¿": 355,
      "Ð¾Ð³Ð´Ð°": 356,
      "ĠÐ³Ð¾": 357,
      "Ð¸Ðµ": 358,
      "ĠÐ¿Ð¾Ð»": 359,
      "ÐµÐ³": 360,
      "Ð°Ð³": 361,
      "ĠÐµÐµ": 362,
      "ÑģÑĤÑĮ": 363,
      "ĠÐ±ÑĭÐ»Ð¾": 364,
      "Ð¾Ð¼Ñĥ": 365,
      "ĠÐ¯": 366,
      "Ð½ÑĥÐ»": 367,
      "Ð½Ð¾Ð³Ð¾": 368,
      "Ġ\"": 369,
      "Ð¾Ðµ": 370,
      "ĠÐ¿Ð¾Ñģ": 371,
      "ĠÐ´Ð²": 372,
      "Ð¼Ñĥ": 373,
      "Ð°Ñİ": 374,
      "ĠÑĥÐ¶": 375,
      "ĠÐ³Ð»": 376,
      "Ð½ÑĭÐµ": 377,
      "Ð¾ÑģÑĮ": 378,
      "Ð¸ÑĢ": 379,
      "Ð°Ð»ÑĮ": 380,
      "ĠÐ³Ð¾Ð²Ð¾ÑĢ": 381,
      "ĠÐĵ": 382,
      "Ð¾Ð²Ð°": 383,
      "ĠÐ»Ñİ": 384,
      "ĠÐĽ": 385,
      "Ð°ÐµÑĤ": 386,
      "ÐµÐ½Ñı": 387,
      "Ð°Ñħ": 388,
      "Ð¸Ð·": 389,
      "ĠÑĢÑĥ": 390,
      "ÑĭÐµ": 391,
      "ĠÐĳ": 392,
      "ĠÑģÐ°Ð¼": 393,
      "ĠÑģÐ¼": 394,
      "ĠÐ³Ð¾Ð»": 395,
      "Ð¸Ð»ÑģÑı": 396,
      "ÑĢÐ¾Ñģ": 397,
      "ĠÑĢÐ°Ñģ": 398,
      "Ð½ÑĭÐ¼": 399,
      "ÑĥÑĢ": 400,
      "ÑģÑĤÑĢ": 401,
      "Ð°ÑĪ": 402,
      "ÑĭÑħ": 403,
      "Ð°Ð»ÑģÑı": 404,
      "Ð°Ð½Ð¸": 405,
      "ĠÐ²Ð·": 406,
      "ĠÐ¼ÐµÐ½Ñı": 407,
      "ĠÑĤÑĢ": 408,
      "ĠÐ±ÑĥÐ´": 409,
      "ĠÐŀÐ½": 410,
      "Ð´Ðµ": 411,
      "ĠÑĤÑĭ": 412,
      "ÑģÐ¿": 413,
      "Ð½Ð°Ñı": 414,
      "ÐµÐ½Ð¸Ðµ": 415,
      "ÑħÐ¾Ð´": 416,
      "Ð½ÑĭÑħ": 417,
      "ĠÑģÐµÐ±": 418,
      "Ð¸ÑĤÐµÐ»ÑĮ": 419,
      "ÐµÑĢÑĮ": 420,
      "ÑĭÐ¼": 421,
      "ÐµÐ½Ð¸Ñı": 422,
      "ĠÑģÐºÐ°Ð·Ð°Ð»": 423,
      "ÐµÑħ": 424,
      "Ð¸Ñģ": 425,
      "ĠÐ¼Ð½Ðµ": 426,
      "ĠÐł": 427,
      "ÑĤÐµ": 428,
      "ÑĤÐ¸": 429,
      "Ñ£": 430,
      "ĠÐ²Ð¸Ð´": 431,
      "ĠÐ¿Ð¾ÑĤ": 432,
      "ĠÐµÐ¼Ñĥ": 433,
      "ĠÑĤÐ¾Ð»ÑĮÐºÐ¾": 434,
      "Ð½Ð¾Ðµ": 435,
      "ÐµÐ»Ð¾Ð²": 436,
      "ĠÐ¿Ð¾Ðº": 437,
      "ÑĪÐµ": 438,
      "ÑĢÐ°Ð²": 439,
      "ĠÑĦ": 440,
      "ĠÐµÑīÐµ": 441,
      "ÐºÐ¾Ð²": 442,
      "ĠÐ³ÑĢ": 443,
      "ĠÐ½Ð°Ð´": 444,
      "ĠÐ¾Ð¿": 445,
      "ĠÐ¿Ð»": 446,
      "ÑģÑĤÐ¸": 447,
      "ÐµÐ»Ð¸": 448,
      "ÐµÐ¼Ñĥ": 449,
      "ÑıÑĤÑĮ": 450,
      "ÑĥÑħ": 451,
      "ÑıÐ»": 452,
      "ĠÐ·Ð½Ð°": 453,
      "ĠÐ§": 454,
      "ĠÐ´ÐµÐ»": 455,
      "ĠÐ´ÑĢÑĥÐ³": 456,
      "Ð¸Ð½Ð°": 457,
      "ÑģÑĤÐ°Ð²": 458,
      "ĠÐķ": 459,
      "ÑĢÐµÐ¼": 460,
      "ĠÐ¿ÑĢÐµÐ´": 461,
      "ĠÐ³Ð»Ð°Ð·": 462,
      "ĠÐ¸Ð¼": 463,
      "ĠÐ¾Ñĩ": 464,
      "ĠÐ¾ÑĤÐ²": 465,
      "ĠÐ¿ÑĢÐ¾": 466,
      "ÑĭÑĪ": 467,
      "ÑģÐ»": 468,
      "ĠÐ³Ð¾ÑĢ": 469,
      "ÑĥÐ·": 470,
      "Ð¸ÑĤÐµ": 471,
      "ÑĥÐ²": 472,
      "ĠÑĥÐ¶Ðµ": 473,
      "ÐºÐµ": 474,
      "Ð°Ð½Ð¾Ð²": 475,
      "ĠÐ²Ð¾Ð·": 476,
      "ÑĨÐ°": 477,
      "ĠÐĹ": 478,
      "Ð»Ð¸Ð²": 479,
      "ĠÐ¼Ñĭ": 480,
      "ĠÑģÑĤÐ°ÑĢ": 481,
      "Ð°Ð»Ð¾": 482,
      "ÐºÐ¾Ð¹": 483,
      "ĠÐ½Ð¸": 484,
      "ĠÑĨ": 485,
      "Ð¾ÑĤÑĢ": 486,
      "Ð»Ñİ": 487,
      "ÐµÑĨ": 488,
      "ÐµÑģÐº": 489,
      "ĠÐ»ÑİÐ±": 490,
      "ÐµÐ»Ð°": 491,
      "ĠÐ¼Ð¾Ð»": 492,
      "ÑĮÑı": 493,
      "ĠÐŃ": 494,
      "ĠÐ¼Ð¾": 495,
      "ĠÑĩÐµÐ»Ð¾Ð²": 496,
      "ĠÐ¼Ð¾Ð³": 497,
      "ÑĤÐ¾Ð±": 498,
      "ĠÐºÐ¾Ð½": 499,
      "Ð¾Ð±ÑĢ": 500,
      "ĠÐĿÐ¾": 501,
      "ÑĥÐ»": 502,
      "ĠÐºÐ¾Ð³Ð´Ð°": 503,
      "ĠÑĩÐµÑĢ": 504,
      "ĠÑģÐ¾": 505,
      "ĠÐ¾Ðº": 506,
      "ĠÐ±ÐµÐ·": 507,
      "ÐµÑĪÑĮ": 508,
      "ĠÐ½ÐµÐ³Ð¾": 509,
      "ĠÐ¾Ñģ": 510,
      "ĠÑĩÑĤÐ¾Ð±": 511,
      "ĠÐ±Ð¾Ð»ÑĮ": 512,
      "Ð»ÑıÐ´": 513,
      "Ð¸Ð¼Ð¸": 514,
      "ĠÐ¼Ð¾Ð¶": 515,
      "ÑģÐ»Ð¸": 516,
      "ĠÑĤÐµÐ±": 517,
      "ĠÐ¸Ñħ": 518,
      "ĠÐ´Ð¾": 519,
      "ĠÐ´Ð»Ñı": 520,
      "Ð²ÐµÑĢ": 521,
      "ÑĢÐ°ÑĤ": 522,
      "Ð½Ð¸Ð¼": 523,
      "Ð½ÑĥÑİ": 524,
      "ĠÐ¿Ð¾ÑģÐ»": 525,
      "Ð»Ð¾": 526,
      "ÐµÐ¿ÐµÑĢÑĮ": 527,
      "ÑĪÐ¸": 528,
      "ĠÐ£": 529,
      "Ð¸Ñı": 530,
      "ĠÑĩÐµÐ»Ð¾Ð²ÐµÐº": 531,
      "Ð¾Ð»Ð¶": 532,
      "ĠÐ²ÐµÑĢ": 533,
      "ĠÐ²Ð¾": 534,
      "ÐµÐµ": 535,
      "Ð°ÑıÑģÑĮ": 536,
      "Ð°ÑģÑĤ": 537,
      "ĠÑģÐ¾Ð²": 538,
      "ĠÐ¿Ð¾Ñĩ": 539,
      "ĠÑĥÐ´": 540,
      "Ð°Ð»Ð¾ÑģÑĮ": 541,
      "ĠÐ¿Ð¾Ð½": 542,
      "ÐºÐ¾Ð¼": 543,
      "ĠÐ·Ð°Ð¼": 544,
      "ĠÐ¿Ð¾Ð²": 545,
      "Ð´Ñĥ": 546,
      "ĠÐ¿Ð¾ÑĢ": 547,
      "ÑĥÑģÑĤ": 548,
      "ÑĢÐ°Ð½": 549,
      "Ð¸ÑĪ": 550,
      "ÐµÑĤÑģÑı": 551,
      "ÑĥÐ²ÑģÑĤÐ²": 552,
      "Ð½Ð¾Ð²": 553,
      "Ð½Ð¾Ð¼": 554,
      "ÑĢÐ¾Ð²": 555,
      "ĠÑħÐ¾ÑĤ": 556,
      "ÐµÑĤÐµ": 557,
      "ĠÐĶÐ°": 558,
      "ĠÐ»Ð¸ÑĨ": 559,
      "ÑĢÑĭ": 560,
      "ĠÐ½Ð°Ð¿": 561,
      "ĠÑģÐµÐ±Ñı": 562,
      "ĠÐ±Ð»": 563,
      "ĠÐ¤": 564,
      "ĠÐºÐ¾Ð¼": 565,
      "ĠÐ±ÑĭÑĤÑĮ": 566,
      "Ð°Ñĩ": 567,
      "Ð¸Ð»Ð°ÑģÑĮ": 568,
      "ĠÐ¿Ð¾Ð¼": 569,
      "Ð°Ð¶Ðµ": 570,
      "ĠÐĿÐµ": 571,
      "Ð°Ð»Ð¸ÑģÑĮ": 572,
      "Ð»ÐµÐ½": 573,
      "ĠÑģÐ¾Ð±": 574,
      "ĠÐ¾Ð½Ð¸": 575,
      "ĠÐ¾ÑĩÐµÐ½ÑĮ": 576,
      "ĠÐ½Ð°Ñģ": 577,
      "ĠÐ²Ð´": 578,
      "ÐµÑĤÑĮ": 579,
      "Ð°Ð»Ð°ÑģÑĮ": 580,
      "ĠÐ±ÑĭÐ»Ð°": 581,
      "Ð»Ñĭ": 582,
      "Ð¾Ñħ": 583,
      "ĠÑĤÐµÐ¼": 584,
      "Ð°ÑĤÑĮÑģÑı": 585,
      "Ð¾Ñİ": 586,
      "ĠÑĤÐµÐ¿ÐµÑĢÑĮ": 587,
      "ÑĢÑı": 588,
      "ĠÐ´Ð°": 589,
      "ĠÐ²Ð¾ÑĤ": 590,
      "ĠÐ½Ð¸Ðº": 591,
      "ĠÑģÐµÑĢ": 592,
      "ĠÐ´ÑĥÐ¼": 593,
      "Ñĳ": 594,
      "ĠÐ¸Ð»Ð¸": 595,
      "ÑĮÑİ": 596,
      "ĠÐ³Ð¾Ð»Ð¾Ð²": 597,
      "Ð¸ÑĨ": 598,
      "ĠÐŁÑĢ": 599,
      "ĠÐ²ÑĢÐµÐ¼": 600,
      "ĠÐ²Ð°Ñģ": 601,
      "ĠÐ½Ð°Ñĩ": 602,
      "ĠÐ»ÑİÐ´": 603,
      "ĠÐ´Ð°Ð¶Ðµ": 604,
      "ĠÐ¶ÐµÐ½": 605,
      "ĠÑģÐ¿ÑĢÐ¾Ñģ": 606,
      "Ð°Ð²ÑĪ": 607,
      "ĠÐ´Ð¾Ð¼": 608,
      "ĠÐ¾ÑģÑĤ": 609,
      "ÑĥÐ´ÑĮ": 610,
      "ĠÐŀÐ½Ð°": 611,
      "ĠÑĩÐµÐ¼": 612,
      "ĠÑĥÐ¼": 613,
      "Ð¸ÑĤÐµÐ»ÑĮÐ½Ð¾": 614,
      "ÑĥÐ´Ð°": 615,
      "ĠÐ½ÐµÐ¿": 616,
      "ĠÐ²Ð¾Ñģ": 617,
      "Ð¸Ð¸": 618,
      "ĠÐĲÐ½": 619,
      "ÑģÐµ": 620,
      "Ð¾Ð¶Ðµ": 621,
      "ÑĪÐµÐ»": 622,
      "Ġ(": 623,
      "ĠÑģÑĤÐ¾": 624,
      "ĠÐ·Ð½": 625,
      "ÑĢÐ°Ð·": 626,
      "Ð¸Ð»ÑĮ": 627,
      "ÑĢÐµÐ´": 628,
      "ĠÐ²Ð¿": 629,
      "ĠÐ·Ð°Ðº": 630,
      "ĠÐ·Ð°Ð¿": 631,
      "ĠÐµÐ¹": 632,
      "ĠÐĿÑĥ": 633,
      "ÑģÑĤÐ²Ð¾": 634,
      "ĠÐŃÑĤÐ¾": 635,
      "Ð½ÑĭÐ¼Ð¸": 636,
      "ĠÐļÐ°Ðº": 637,
      "ÑĢÐ¾Ð´": 638,
      "ĠÑĩÑĤÐ¾Ð±Ñĭ": 639,
      "Ð¸Ð³": 640,
      "ĠÐĺÐ²": 641,
      "ĠÐºÐ°Ð·": 642,
      "ĠÐ½Ð¸Ñĩ": 643,
      "ÑĨÐµ": 644,
      "Ð¾ÑĢÐ¾ÑĪ": 645,
      "ÐµÑĢÐ¶": 646,
      "Ð´ÐµÐ»": 647,
      "ĠÐ¡ÑĤ": 648,
      "Ð¸ÑģÑĤ": 649,
      "Ð½Ð¸Ðº": 650,
      "ÐµÑī": 651,
      "Ð´ÑĢ": 652,
      "ĠÐ¿ÑĢÐ°Ð²": 653,
      "ĠÐ½ÐµÐ¼": 654,
      "ĠÐ±Ð¾Ð»": 655,
      "Ð°ÑĤÐµÐ»ÑĮ": 656,
      "ĠÑĩÑĥÐ²ÑģÑĤÐ²": 657,
      "Ð½ÐµÐ¹": 658,
      "Ð¸Ð»Ð¸ÑģÑĮ": 659,
      "ĠÐ½ÐµÑĤ": 660,
      "ĠÐ±ÐµÑģ": 661,
      "ĠÐºÐ¾Ð»": 662,
      "ĠÑĥÐ²": 663,
      "Ð¸Ð½Ñĥ": 664,
      "ĠÐ±ÑĭÐ»Ð¸": 665,
      "ĠÐ²Ð°Ð¼": 666,
      "ÑĤÐ°": 667,
      "ĠÐ¶Ð¸Ð·": 668,
      "ĠÐľÐ°ÑĢ": 669,
      "ĠÐ²Ð´ÑĢÑĥÐ³": 670,
      "ĠÐ¿ÑĢÐ¾Ñģ": 671,
      "Ð»ÑĭÐ±": 672,
      "ÑĤÑĢ": 673,
      "Ð°ÑİÑĤ": 674,
      "Ð¸ÑĤÑĮÑģÑı": 675,
      "ĠÑģÐµÐ±Ðµ": 676,
      "ĠÐ´ÑĢ": 677,
      "ĠÑĤÐ¾Ð³Ð¾": 678,
      "ÑĥÑģ": 679,
      "Ð°Ð·ÑĭÐ²": 680,
      "Ð¸Ð¶": 681,
      "ĠÑģÐºÐ°Ð·Ð°Ð»Ð°": 682,
      "ÑĭÐ»": 683,
      "ĠÑĥÐ»ÑĭÐ±": 684,
      "ÑĢÐ°ÑĪ": 685,
      "ĠÑģÐ»Ð¾Ð²": 686,
      "ÑĩÐ°Ñģ": 687,
      "Ð½Ð¾ÑģÑĤÑĮ": 688,
      "ĠÐºÑĢÐ°Ñģ": 689,
      "ÑıÐ·": 690,
      "ĠÐ³Ð¾Ð»Ð¾Ñģ": 691,
      "ĠÐºÐ¾ÑĢ": 692,
      "ĠÐŁÐµÑĤ": 693,
      "ĠÐ½Ð¸Ð¼": 694,
      "ĠÑģÑĤÐ¾Ð»": 695,
      "Ð»ÐµÐº": 696,
      "ĠÐ§ÑĤÐ¾": 697,
      "ĠÐ¿Ð¾Ð¿": 698,
      "ĠÐºÐ½Ñı": 699,
      "ÐµÐ´ÑĮ": 700,
      "ĠÐĴÑĭ": 701,
      "ĠÐ¾Ð³": 702,
      "ĠÐµÑģÐ»Ð¸": 703,
      "ĠÐ²Ð°ÑĪ": 704,
      "ÑĤÑĭ": 705,
      "ĠÐ¾ÑĤÐº": 706,
      "Ð½Ð¾ÑģÑĤÐ¸": 707,
      "ĠÐ¼Ð¾Ð¶ÐµÑĤ": 708,
      "ĠÐ¡Ð°Ð¼": 709,
      "ĠÐ¿ÐµÑĢÐµÐ´": 710,
      "ĠÑĥÐ³": 711,
      "ÑģÐºÐ¸Ð¹": 712,
      "ĠÐ²Ð¾Ð»": 713,
      "ĠÐ·Ð°Ð±": 714,
      "ÐºÐ¸Ð¹": 715,
      "ÐµÑĢÐ°": 716,
      "Ð°Ð¶Ð´": 717,
      "Ð»Ð°Ð´": 718,
      "ÑĥÐº": 719,
      "ĠÐ½ÐµÐ¹": 720,
      "ĠÐ¸ÑģÐ¿": 721,
      "ĠÐ½Ð¸ÑĩÐµÐ³Ð¾": 722,
      "ĠÐ³Ð»Ð°Ð·Ð°": 723,
      "Ð¸Ð½ÑĥÑĤ": 724,
      "ÑĭÑĤ": 725,
      "ĠÐ¿Ð¾Ð·": 726,
      "ĠÑįÑĤÐ¾Ð³Ð¾": 727,
      "ÑĢÐ°Ñģ": 728,
      "ÑĨÑĭ": 729,
      "ĠÐ½ÐµÐ²": 730,
      "Ð½ÐµÐµ": 731,
      "Ð½ÑĥÐ²": 732,
      "ĠÐ²ÑĢÐµÐ¼Ñı": 733,
      "ÑıÐ´": 734,
      "ĠÐ±ÑĥÐ´ÐµÑĤ": 735,
      "\".": 736,
      "ĠÐ³Ð´Ðµ": 737,
      "ĠÐ½ÐµÐ´": 738,
      "ĠÑĥÐ±": 739,
      "ĠÑĩÐ°Ñģ": 740,
      "ĠÑĤÐ¾ÑĤ": 741,
      "ÑĩÐ°": 742,
      "ÑĤÐ¾Ð²": 743,
      "ĠÐ·Ð°Ð²": 744,
      "âĢĿ": 745,
      "ÐºÐ°Ð¼Ð¸": 746,
      "ĠÐ¿ÑĢÐ¾Ð´": 747,
      "ÐµÐ»Ð¾": 748,
      "Ð±ÑĥÐ´ÑĮ": 749,
      "ĠÐ½Ð°ÑĪ": 750,
      "Ð½ÑĥÐ»ÑģÑı": 751,
      "ĠÐĿÐ°": 752,
      "ĠâĢĶ": 753,
      "ĠâĢľ": 754,
      "ĠÐºÐ°ÑĢ": 755,
      "Ð¾Ð´Ð°": 756,
      "ĠÑģÐµÑĢÐ´": 757,
      ",-": 758,
      "Ð½Ð¸Ð±ÑĥÐ´ÑĮ": 759,
      "ĠÑģÑĤÑĢ": 760,
      "ĠÑħÐ¾ÑĢÐ¾ÑĪ": 761,
      "ÑĪÐ¸ÑģÑĮ": 762,
      "ĠÐ´ÐµÐ½ÑĮ": 763,
      "ĠÐ½Ð°Ðº": 764,
      "Ð¾Ð²Ð°Ð»": 765,
      "ÑģÑĤÐ²Ð°": 766,
      "ÑģÑĤÐ²ÐµÐ½": 767,
      "ĠÐĿÐ¸Ðº": 768,
      "Ð¾ÑģÑĤÐ¸": 769,
      "ĠÐ¶ÐµÐ»": 770,
      "ĠÐ¾Ð¿ÑıÑĤÑĮ": 771,
      "ĠÑĥÐ¿": 772,
      "ĠÐ¾Ð´Ð¸Ð½": 773,
      "ĠÐ³Ð¾Ð²Ð¾ÑĢÐ¸Ð»": 774,
      "ĠÐµÑģÑĤÑĮ": 775,
      "ĠÐºÐ¾Ð¼Ð½Ð°": 776,
      "ĠÑĤÐµÐ±Ñı": 777,
      "ÑģÑĤÑĥÐ¿": 778,
      "ĠÐ½Ð¾Ð³": 779,
      "ĠÐ¥": 780,
      "Ð¸Ð»Ð¾ÑģÑĮ": 781,
      "!.": 782,
      "Ð¸ÑĤÑģÑı": 783,
      "ĠÑģÐ¼Ð¾ÑĤÑĢ": 784,
      "ĠÑĤÐ¾Ð¼": 785,
      "ĠÑĥÑģ": 786,
      "ĠÑģÐ¸Ð´": 787,
      "Ð»Ðµ": 788,
      "ÐµÐ½Ð¸ÐµÐ¼": 789,
      "ÑıÑī": 790,
      "Ð¸Ð²ÑĪ": 791,
      "Ð³Ð¸Ð½": 792,
      "Ð¸ÑĩÐµÑģÐº": 793,
      "ĠÐ¿ÐµÑĢÐ²": 794,
      "Ð½ÑĥÐ»Ð°": 795,
      "ÑģÑĤÑĢÐ¾": 796,
      "ÐµÑĢÐ¸": 797,
      "ĠÐ²ÑģÑı": 798,
      "ĠÑįÑĤÐ¾ÑĤ": 799,
      "Ð°Ð½Ð´": 800,
      "ĠÑĤÐ°Ð¼": 801,
      "ÑıÐ²": 802,
      "ĠÐ´Ð¾Ð»Ð¶": 803,
      "ĠÐ¿Ð¾Ð³": 804,
      "Ð»Ð¾Ð²": 805,
      "ĠÐ¼Ð¸Ð½ÑĥÑĤ": 806,
      "ÑİÑĤ": 807,
      "ĠÑĢÐ°Ð´": 808,
      "Ð¸Ð²Ð°Ñı": 809,
      "ÑĩÐ½Ð¾": 810,
      "ĠÐ¿ÑĢÐ¸Ð²": 811,
      "ĠÑģÐ¿ÑĢÐ¾ÑģÐ¸Ð»": 812,
      "ÑıÐ¼": 813,
      "Ð¼Ð¾ÑĤÑĢ": 814,
      "ĠÑĤÑĥÑĤ": 815,
      "ĠÐĴÐ¾ÑĤ": 816,
      "ĠÐ½Ð°Ð´Ð¾": 817,
      "ĠÐ¼ÑĥÐ¶": 818,
      "Ð°Ð³Ð¾": 819,
      "Ð°ÐµÑĤÑģÑı": 820,
      "ÑĤÐ¾ÑĢÐ¾Ð½": 821,
      "ĠÑĤÐµÐ±Ðµ": 822,
      "ĠÐ»Ð¸ÑĨÐ¾": 823,
      "ĠÑģÐ´ÐµÐ»": 824,
      "ÑĥÐ¹": 825,
      "ĠÐ½ÐµÐµ": 826,
      "ÑĭÐ¼Ð¸": 827,
      "ÑĥÐ½": 828,
      "ÑıÐ½": 829,
      "ĠÑĤÐ¾Ð¶Ðµ": 830,
      "ĠÐ¿ÑĢÐ¾ÑĤ": 831,
      "ĠÑĤÐ¾Ð»": 832,
      "Ð¾ÑĢÐ¾Ð²": 833,
      "ÐµÐ½Ð¸Ð¸": 834,
      "ĠÐ·Ð²": 835,
      "ÑĥÑī": 836,
      "ÑĩÐ¸Ðº": 837,
      "ÑĩÐ¸ÑĤ": 838,
      "Ð°ÑİÑī": 839,
      "ÑģÐºÐ¾Ð¹": 840,
      "ĠÐ·Ð°Ð´": 841,
      "ĠÐ¿Ð¾ÑĤÐ¾Ð¼Ñĥ": 842,
      "ĠÐ¸Ð½": 843,
      "Ð½Ð¸Ðµ": 844,
      "ĠÐ´ÐµÐ²": 845,
      "ĠÑĢÐµÑĪ": 846,
      "ĠÐ²Ð·Ð³": 847,
      "ĠÐ¼Ð¾Ð»Ð¾Ð´": 848,
      "ĠÐ¾ÑĤÐ²ÐµÑĤ": 849,
      "ÐµÑĢÑĪ": 850,
      "ĠÐ½ÐµÑģÐº": 851,
      "ÐµÑĢÐµÐ´": 852,
      "ĠÐ±Ð¾Ð»ÑĮÑĪ": 853,
      "ĠÐ¢Ð°Ðº": 854,
      "ĠÐ±ÑĥÐ´ÑĤÐ¾": 855,
      "ĠÐºÐ½ÑıÐ·": 856,
      "Ð¼Ð°": 857,
      "Ð¾ÑģÑĤÑĮ": 858,
      "ĠÐ¿Ð¾Ð¶": 859,
      "Ð¸ÑĪÑĮ": 860,
      "ÑıÑģÑĮ": 861,
      "ĠÐ½Ð°Ð¼": 862,
      "\",": 863,
      "ÑĤÑĥ": 864,
      "ĠÐ¢Ñĭ": 865,
      "ÑıÐ¶": 866,
      "Ð°Ð½Ð¸Ðµ": 867,
      "ĠÐ´ÑĥÑĪ": 868,
      "ÑģÐºÐ¾Ð³Ð¾": 869,
      "ĠÑģÐ¾Ð»": 870,
      "Ð¾ÐºÐ¾": 871,
      "ĠÐ²ÑģÐµÑħ": 872,
      "Ð¿Ð¾Ð¼": 873,
      "ĠÐ¼Ð°Ð»": 874,
      "ĠÑģÑĤÐ¾ÑĢÐ¾Ð½": 875,
      "ĠÐ¿ÑĢÐ¸Ð½": 876,
      "ÐµÐ³Ð´Ð°": 877,
      "ĠÐ¶Ð¸Ð²": 878,
      "ÑĢÐ¾Ð¼": 879,
      "ĠÐ´Ð¾ÑĢ": 880,
      "ĠÑģÐ»ÑĥÑĩ": 881,
      "ĠÐ½Ð¸Ñħ": 882,
      "Ð¸Ð»Ð¾": 883,
      "Ð°Ð²Ð½Ð¾": 884,
      "ÐµÑģÑı": 885,
      "ĠÐºÐ¾ÑĤÐ¾ÑĢÑĭÐ¹": 886,
      "Ð¾Ð²Ð¾Ð»ÑĮ": 887,
      "ÐºÐ°Ñħ": 888,
      "ÑĢÑĭÐ²": 889,
      "ĠÑĥÐ·": 890,
      "Ð¸ÑģÑĮ": 891,
      "ÑĢÐ°ÑĦ": 892,
      "Ð¾Ð²Ð°ÑĢ": 893,
      "ĠÐĲÐ»ÐµÐº": 894,
      "ĠÐ²ÑĭÑģ": 895,
      "Ð³Ð¾ÑĢ": 896,
      "ÐµÐ½Ð½ÑĭÐ¹": 897,
      "Ð°ÐºÐ¾Ð¼": 898,
      "Ð½ÑĮ": 899,
      "Ð²Ð°ÑĢ": 900,
      "Ð°Ð½Ð¸Ñı": 901,
      "ĠÑģÐ²Ð¾ÐµÐ¹": 902,
      "ĠÐ²ÐµÑģ": 903,
      "ĠÐ½Ð¾Ñĩ": 904,
      "ÐµÑİ": 905,
      "ĠÐ¸Ð·Ð²": 906,
      "ÑĨÑĥ": 907,
      "ĠÐºÑĤÐ¾": 908,
      "ĠÐ±Ð¾Ð³": 909,
      "ĠÐ´Ð¾Ð»": 910,
      "ÑıÑģ": 911,
      "ÑĢÐ°Ð¶": 912,
      "ĠÑįÑĤÐ¾Ð¼": 913,
      "Ð°ÐºÐ¸": 914,
      "ĠÑģÐ¾Ñģ": 915,
      "ĠÐ¿ÑĢÐ¾Ð´Ð¾Ð»Ð¶": 916,
      "Ð½Ñİ": 917,
      "ĠÐ½ÐµÑģ": 918,
      "ÑĭÑĩ": 919,
      "ĠÐ·Ð°Ð³": 920,
      "ĠÑĢÐ°Ð·Ð³": 921,
      "ĠÐ¿Ð¾ÑĤÐ¾Ð¼": 922,
      "Ð²Ð°ÑĤ": 923,
      "ĠÐĿÐµÑĤ": 924,
      "ĠÐĵÑĢÐ¸": 925,
      "Ð¾ÐºÐ¾Ð¹": 926,
      "ĠÐ²ÐµÐ»": 927,
      "ĠÑĩÐµÐ³Ð¾": 928,
      "ĠÑĢÑĥÐºÐ¸": 929,
      "ĠÑħÐ¾Ñĩ": 930,
      "Ð¾ÑĪÐµÐ»": 931,
      "ĠÐ´ÐµÐ»Ð¾": 932,
      "Ð»Ð¾Ð½": 933,
      "ĠÑģÐ²Ð¾Ñİ": 934,
      "ÑĢÐ¾Ð½": 935,
      "ÑĭÐº": 936,
      "ĠÑĤÐ¸Ñħ": 937,
      "ÑĤÐµÑĢ": 938,
      "ÐµÑģÑĮ": 939,
      "ĠÑī": 940,
      "ĠÐ½ÐµÑģÐºÐ¾Ð»ÑĮÐºÐ¾": 941,
      "ĠÐ´ÐµÑĢ": 942,
      "Ð¸Ð¼Ð¾": 943,
      "ÐµÑĤÐ°": 944,
      "ĠÑĢÑĥÐºÑĥ": 945,
      "ĠÐ¾ÑģÐ¾Ð±": 946,
      "ĠÑĢÐ°ÑģÑģÐº": 947,
      "ĠÐ±Ð¾Ð»ÐµÐµ": 948,
      "ĠÐ³Ð»ÑıÐ´": 949,
      "ĠÑģÐ»ÑĭÑĪ": 950,
      "ĠÐ¿Ð°ÑĢ": 951,
      "ĠÐ½Ð¾Ð²": 952,
      "ĠÐ²ÑģÐµÐ³Ð´Ð°": 953,
      "Ð¶Ðµ": 954,
      "ÐµÑģÑĤÐµ": 955,
      "ĠÑģÑĭ": 956,
      "Ð½Ð¾Ð¼Ñĥ": 957,
      "Ð°Ð¹ÑĤÐµ": 958,
      "ĠÑģÐ»Ð¾Ð²Ð°": 959,
      "ĠÐ»ÑĥÑĩ": 960,
      "ĠÐ±ÐµÐ»": 961,
      "Ð¾Ð»Ð¾Ð´": 962,
      "ĠÐ¼Ð¾Ð¹": 963,
      "Ð¸Ð²Ð°Ð»": 964,
      "ĠÐ¿Ð¾ÑģÐ»Ðµ": 965,
      "ĠÐ²ÐµÑĩ": 966,
      "ĠÑģÐºÐ°Ð·Ð°ÑĤÑĮ": 967,
      "ÐµÐ¶Ð´Ñĥ": 968,
      "ÐµÐ½Ð°": 969,
      "ĠÐĺÐ²Ð°Ð½Ð¾Ð²": 970,
      "Ð¸Ñī": 971,
      "ĠÐ²ÑģÑĤÑĢ": 972,
      "Ð»Ð¸ÑģÑĮ": 973,
      "ĠÐ¿Ð¾Ð½Ð¸Ð¼": 974,
      "ĠÐ·Ð°ÑĤ": 975,
      "ĠÑĤÐ¾Ð³Ð´Ð°": 976,
      "ĠÐ½ÑĥÐ¶": 977,
      "ĠÐ·Ð°Ñģ": 978,
      "ĠÐ²ÐµÐ´ÑĮ": 979,
      "ĠÐ¸ÑģÐº": 980,
      "Ð°Ð½ÑĤ": 981,
      "ĠÑĢÐ°ÑģÐ¿": 982,
      "ĠÐ»ÐµÑĤ": 983,
      "Ð¸Ð½Ð¾Ð²": 984,
      "ÐµÑĢÑĤ": 985,
      "ĠÑģÐ½": 986,
      "ĠÐ½Ð°Ð·": 987,
      "ĠÑĥÐº": 988,
      "ĠÐ·ÐµÐ¼": 989,
      "ĠÐ·Ð½Ð°Ñİ": 990,
      "âĢ¦": 991,
      "ĠÐ¿Ð¾Ð±": 992,
      "ĠÑĢÐ°Ð±": 993,
      "ĠÐ¨": 994,
      "Ð¸Ð½Ñĭ": 995,
      "ĠÐ¡Ð°Ð¼Ð³Ð¸Ð½": 996,
      "ĠÑģÐ¾Ð²ÐµÑĢÑĪ": 997,
      "ĠÐ½Ð°Ð²": 998,
      "ĠÑįÑĤÐ¸": 999,
      "Ð¸Ð½Ðµ": 1000,
      "ĠÐ¶ÐµÐ½Ñī": 1001,
      "ĠÐ¾ÑģÑĤÐ°Ð²": 1002,
      "Ð°Ð½Ð°": 1003,
      "ĠÐºÐ¾ÑĤÐ¾ÑĢÑĭÐµ": 1004,
      "Ð½Ð¾Ñİ": 1005,
      "ĠÐ³Ð¾ÑģÐ¿": 1006,
      "ĠÐ¿Ð¾ÑģÐ»ÐµÐ´": 1007,
      "Ð»Ð°Ñģ": 1008,
      "ĠÐ½ÐµÐ±": 1009,
      "ĠÐ²ÑģÐµÐ¼": 1010,
      "ĠÑĥÐ²Ð¸Ð´": 1011,
      "ĠÐ¾ÑĤÐ²ÐµÑĩ": 1012,
      "ĠÐ±Ð°ÑĢ": 1013,
      "ĠÑĢÐ¾Ð´": 1014,
      "Ð½Ð¸Ñĩ": 1015,
      "ĠÐ¼Ð°ÑĤ": 1016,
      "ĠÐ²ÑģÑĳ": 1017,
      "Ð²Ð¾ÑĢ": 1018,
      "Ð¾Ð½ÐµÑĨ": 1019,
      "ÑģÐµÐ¼": 1020,
      "Ð¾Ñī": 1021,
      "ĠÐ±ÑĢ": 1022,
      "ĠÐ²Ð¾Ð¿": 1023,
      "Ð»Ð¸Ð²Ð¾": 1024,
      "ĠÐ»ÐµÐ³": 1025,
      "Ð¸Ñİ": 1026,
      "ĠÐ±Ð¾Ð»ÑĮÑĪÐµ": 1027,
      "ĠÐ¿ÑĢÐ¸Ðº": 1028,
      "ĠÑħÐ¾ÑĤÐµÐ»": 1029,
      "ĠÐºÐ°ÐºÐ¾Ð¹": 1030,
      "ÑĪÐ¸Ð¹": 1031,
      "ĠÐ³Ð¾Ð»Ð¾Ð²Ñĥ": 1032,
      "ÐµÐ»Ñı": 1033,
      "ĠÐ¿ÑĢÐ¸Ð±": 1034,
      "ÑĥÑģÐº": 1035,
      "ĠÐĴÑģÐµ": 1036,
      "ÑĢÐ°Ñī": 1037,
      "ĠÐ¸Ñģ": 1038,
      "Ð½ÑĥÑĤÑĮ": 1039,
      "ĠÑĢÐ°ÑģÑģ": 1040,
      "ĠÐĲÐ½Ð´ÑĢ": 1041,
      "ĠÑĢÐ°Ð·Ð²": 1042,
      "Ð³Ð¸": 1043,
      "ĠÐ´Ð¾ÑĢÐ¾Ð³": 1044,
      "ÑĩÐ¸Ð²": 1045,
      "ĠÐ¸Ð´": 1046,
      "ĠÐ³ÑĥÐ±": 1047,
      "ĠÐĿÐ¸ÐºÐ¾Ð»": 1048,
      "ĠÐ¿Ð¾Ð´ÑĥÐ¼": 1049,
      "ĠÑģÐ»ÐµÐ´": 1050,
      "ĠÐ¼Ð½Ð¾Ð³Ð¾": 1051,
      "ĠÐ¿Ð¾ÑĩÑĤÐ¸": 1052,
      "Ð°Ð´ÑĨ": 1053,
      "ĠÑģÑĤÐ°Ð»": 1054,
      "ĠÑĩÐµÑĢÐµÐ·": 1055,
      "ĠÐ·Ð°Ð¼ÐµÑĤ": 1056,
      "ÐµÑĤÑĭ": 1057,
      "âķ": 1058,
      "âķķ": 1059,
      "ÑĩÐ°ÑģÑĤ": 1060,
      "Ð²Ð¾": 1061,
      "Ñį": 1062,
      "Ð»ÑĮ": 1063,
      "ĠÐ¾Ð±ÑĬ": 1064,
      "ĠÐµÐ´": 1065,
      "Ð¾Ð¶Ð´": 1066,
      "ĠÐ±ÑĢÐ°ÑĤ": 1067,
      "ÑģÑĤÐ²ÐµÐ½Ð½Ð¾": 1068,
      "ĠÑĥÑĤ": 1069,
      "ĠÐ²Ð¼": 1070,
      "ĠÐ¼Ð¸Ð»": 1071,
      "ÑĭÐ´": 1072,
      "ĠÐ¾Ð¶": 1073,
      "ĠÐ¸Ð³": 1074,
      "ÐµÐºÐ¾": 1075,
      "ÑĩÐµ": 1076,
      "ĠÐ»ÑİÐ´ÐµÐ¹": 1077,
      "ĠÑģÐºÐ¾ÑĢ": 1078,
      "ĠÐĲÐ»ÐµÐºÑģ": 1079,
      "ÐµÐ¹ÑĩÐ°Ñģ": 1080,
      "ĠÐ´Ð¾Ð±ÑĢ": 1081,
      "ĠÐŀÑĤ": 1082,
      "ÑĥÑĪÐºÐ°": 1083,
      "ĠÐ¶Ð¸Ð·Ð½Ð¸": 1084,
      "ĠÑĥÑģÐ¿": 1085,
      "ÑİÐ±": 1086,
      "ÐºÐ°Ñı": 1087,
      "ĠÐ¿Ð¾Ð»Ð¾Ð¶": 1088,
      "Ð´ÐµÑģÑĮ": 1089,
      "ĠÐ¼Ð½": 1090,
      "ĠÐ²ÑĭÐ¿": 1091,
      "ĠÐ´Ð²Ð°": 1092,
      "Ð½ÑıÐ»": 1093,
      "Ð½Ð¸Ð¹": 1094,
      "ĠÐ¿ÑĢÐ¾ÑĪ": 1095,
      "ĠÑĤÐ¾ÑĢ": 1096,
      "ĠÑħÐ¾Ð´": 1097,
      "ĠÐ¿ÑĢÐµÐ¶": 1098,
      "Ð°ÐµÐ¼": 1099,
      "ĠÐ¿ÑĢÐ¾ÑģÑĤ": 1100,
      "ĠÐ¼ÐµÐ¶Ð´Ñĥ": 1101,
      "ĠÑģÐ¾Ð²ÑģÐµÐ¼": 1102,
      "Ð¾Ð¹Ð´": 1103,
      "ÐµÑģÑĤÑĮ": 1104,
      "Ð¼Ðµ": 1105,
      "!\"": 1106,
      "ÐµÐ¹ÑģÑĤÐ²": 1107,
      "ĠÑģÐ²ÐµÑĤ": 1108,
      "ĠÐ´ÑĢÑĥÐ³Ð¾Ð¹": 1109,
      "ĠÐ²Ð¾ÑĢ": 1110,
      "ĠÑĤÐ¾ÑĩÐ½Ð¾": 1111,
      "ĠÐ¿ÑĢÐ¸Ð´": 1112,
      "ÑĥÑĤÑĮ": 1113,
      "Ð¸Ð¿": 1114,
      "ĠÑģÑĤÑĢÐ°Ð½": 1115,
      "ĠÐ²ÑģÐº": 1116,
      "ĠÐ²ÐµÑģÑĮ": 1117,
      "ĠÐ´ÐµÑĤ": 1118,
      "ÑĤÐ¾Ñĩ": 1119,
      "ĠÐºÐ°Ð¶Ð´": 1120,
      "ĠÐ¿Ð¾Ñħ": 1121,
      "ĠÐ»ÑİÐ´Ð¸": 1122,
      "ĠÐ²Ð¾Ð´": 1123,
      "ĠÐ¼Ð¾Ð¶Ð½Ð¾": 1124,
      "Ð¾Ð·Ñı": 1125,
      "ÑĢÐ¾Ñĩ": 1126,
      "ÐµÑĢÐ²": 1127,
      "Ð²ÐµÑĤ": 1128,
      "ÑĪÑĮ": 1129,
      "ĠÐ±ÑĭÐ²": 1130,
      "ĠÐ²Ð¾Ð¿ÑĢÐ¾Ñģ": 1131,
      "ĠÑĥÐ´Ð¸Ð²": 1132,
      "ĠÑģÐ²Ð¾ÐµÐ³Ð¾": 1133,
      "ĠÐłÐ°Ð·": 1134,
      "ĠÐ±ÐµÑģÐ¿": 1135,
      "Ð¾ÑĤÑĮ": 1136,
      "ĠÐ¿ÑĢÐ¾Ð³": 1137,
      "ÐµÐ½ÑĤ": 1138,
      "ĠÑįÑĤÐ¾Ð¹": 1139,
      "Ð½Ð¸Ñı": 1140,
      "ÑĢÑĥÐ¶": 1141,
      "ĠÐļÐ»Ð¸": 1142,
      "ĠÐ°ÑĢ": 1143,
      "ĠÑģÐºÐ°Ð¶": 1144,
      "ĠÑĥÐ¶Ð°Ñģ": 1145,
      "ĠÐ´ÐµÑĢÐµÐ²": 1146,
      "ÐµÐ²Ð¸Ñĩ": 1147,
      "ĠÐ¶Ð°Ð»": 1148,
      "ĠÐºÑĢÐ¸Ðº": 1149,
      "Ð¾Ð²Ð°ÑĤÑĮ": 1150,
      "Ð¾ÑĪÐ°Ð´": 1151,
      "ÑıÑĤÐ½Ð¾": 1152,
      "ÑıÐ³": 1153,
      "ĠÐ´Ð¾Ðº": 1154,
      "ÑĨÐµÐ²": 1155,
      "ĠÐ¿ÑĢÐ¾Ð¸Ð·": 1156,
      "ĠÐ¾ÑĤÐ´": 1157,
      "ĠÐĴÐ°ÑĢ": 1158,
      "ĠÐ²ÑģÐµÐ³Ð¾": 1159,
      "ÐºÐ¸Ðµ": 1160,
      "ĠÐ¾ÑģÑĤÐ°Ð½Ð¾Ð²": 1161,
      "Ð¸Ð±": 1162,
      "ĠÐ´Ð¾ÑģÑĤ": 1163,
      "ĠÐ²Ð·Ð´": 1164,
      "ĠÐĸ": 1165,
      "ĠÐ¿ÑĢÐ¾ÑĤÐ¸Ð²": 1166,
      "ÐĿ": 1167,
      "Ð¾Ð²Ð¾ÑĢÐ¸Ð»": 1168,
      "ĠÑģÑĤÑĢÐ°": 1169,
      "ĠÐŀÐ´": 1170,
      "ÑħÐ²Ð°ÑĤ": 1171,
      "ĠÐ¿ÑĢÐ¾Ð²": 1172,
      "Ð»Ð¸Ð½": 1173,
      "Ð¾Ð¶Ð½Ð¾": 1174,
      "ÑĥÐµÑĤ": 1175,
      "ÑıÐ»Ð°": 1176,
      "ĠÑĤÑıÐ¶": 1177,
      "Ð»ÐµÐ½Ð½Ð¾": 1178,
      "ÑĢÐ°Ð½ÑĨ": 1179,
      "ĠÑĪÐ°Ð³": 1180,
      "Ð½ÐµÐ²": 1181,
      "ĠÐ½ÐµÐ¼Ñĥ": 1182,
      "ÐµÑĩÐ½Ð¾": 1183,
      "ĠÑģÐ»ÑĥÑĪ": 1184,
      "ĠÐ¿Ð»ÐµÑĩ": 1185,
      "ĠÐ³Ð¾ÑĢÐ¾Ð´": 1186,
      "Ð¾Ð½Ð¾Ð²": 1187,
      "ÐµÑģÑĤÐ¸": 1188,
      "ÑıÐ»ÑģÑı": 1189,
      "ĠÑħÐ¾ÑĢÐ¾ÑĪÐ¾": 1190,
      "Ð½Ð¸ÐºÐ°": 1191,
      "ĠÐ±Ð»Ð¸": 1192,
      "ÑĪÐ»Ð°": 1193,
      "ĠÐ½Ð¸ÐºÐ¾Ð³Ð´Ð°": 1194,
      "ĠÑģÐµÐ¹ÑĩÐ°Ñģ": 1195,
      "ĠÐ±Ð¾ÑĢ": 1196,
      "ĠÐ´Ð²Ð¾ÑĢ": 1197,
      "ÐµÐ½Ð¸Ð¹": 1198,
      "ĠÐ²ÑĬ": 1199,
      "ĠÑĤÐ¾Ð½": 1200,
      "ĠÐ¿Ð¾ÐºÐ°Ð·": 1201,
      "ÐµÐ½Ð½ÑĭÐµ": 1202,
      "ÐµÐ½Ñĭ": 1203,
      "ĠÑĥÑĩ": 1204,
      "ĠÐ¿Ð°Ð»ÑĮ": 1205,
      "ĠÑħÐ¾ÑĤÑı": 1206,
      "ÐµÑĢÐ³": 1207,
      "ÑĢÐ¸Ñĩ": 1208,
      "ĠÑĤÐ°ÐºÐ¾Ð¹": 1209,
      "ÐºÐ²": 1210,
      "ĠÐ³Ð¾Ð²Ð¾ÑĢÐ¸ÑĤÑĮ": 1211,
      "ĠÐ·Ð´ÐµÑģÑĮ": 1212,
      "ĠÐºÐ½Ð¸": 1213,
      "ĠÑįÑĤÑĥ": 1214,
      "ĠÐºÐ½ÑıÐ·ÑĮ": 1215,
      "ĠÐ¶Ð¸Ð·Ð½ÑĮ": 1216,
      "ĠÐ»Ð¾ÑĪÐ°Ð´": 1217,
      "Ð¸Ð½Ð¸": 1218,
      "ĠÐ¼Ð°Ð»ÐµÐ½ÑĮ": 1219,
      "ĠÑģÐ¸Ð»": 1220,
      "ĠÐ¿Ð¾ÑģÑĤ": 1221,
      "ÑĢÐ¾": 1222,
      "Ð·Ñı": 1223,
      "ĠÐ»ÐµÐ¶": 1224,
      "ÑĮÐµ": 1225,
      "ĠÐ¼Ð¸Ð½ÑĥÑĤÑĥ": 1226,
      "ĠÐ±ÑĢÐ¾Ñģ": 1227,
      "ĠÐŁÐ¾": 1228,
      "ĠÐ³Ð¾Ð²Ð¾ÑĢÐ¸ÑĤ": 1229,
      "ÐµÐ½Ð½Ð¾Ð¹": 1230,
      "Ð°ÑĪÐ°": 1231,
      "Ð¿Ð¾Ð´": 1232,
      "ÑĦÐ¸ÑĨ": 1233,
      "ĠÐ³Ð»Ð°Ð·Ð°Ð¼Ð¸": 1234,
      "Ð½Ð¸ÐºÐ¾Ð²": 1235,
      "ĠÑģÐ²Ð¾Ð¸": 1236,
      "ÐµÑı": 1237,
      "ÑĥÐ¶Ð´": 1238,
      "ĠÑħÐ¾Ð·Ñı": 1239,
      "ĠÐĵÑĢÐ¸Ð³Ð¾ÑĢ": 1240,
      "Ð»ÐµÐ´": 1241,
      "ÑİÑī": 1242,
      "ĠÐ²ÑģÐ¿Ð¾Ð¼": 1243,
      "ÐµÐ³Ð¾Ð´": 1244,
      "ĠÑģÐµÐ¼": 1245,
      "ĠÐ¼ÐµÐ´": 1246,
      "ĠÑģÐ°Ð´": 1247,
      "Ð²Ð¾Ð»": 1248,
      "ĠÑĢÐ°Ð·Ð³Ð¾Ð²Ð¾ÑĢ": 1249,
      "ĠÐ½ÐµÐ¾Ð±": 1250,
      "ĠÑĩÐµÐ»Ð¾Ð²ÐµÐºÐ°": 1251,
      "ĠÐ¾ÑĤÐ¿": 1252,
      "Ð°Ð¶ÐµÑĤÑģÑı": 1253,
      "Ð¸Ð½Ð¾Ð¹": 1254,
      "ĠÐĲÑĢ": 1255,
      "ĠÐĿÐ°ÑĤ": 1256,
      "ÐµÐ½Ð¸Ñİ": 1257,
      "ÐµÐ¶Ð´": 1258,
      "ÑıÑħ": 1259,
      "ĠÑıÐ²": 1260,
      "ĠÑģÐ²Ð¾Ðµ": 1261,
      "ÑĢÐµÐ·": 1262,
      "ÑģÑĤÐ°": 1263,
      "ĠÐĺÐ·": 1264,
      "ĠÐ¿ÑĢÐµÐ´ÑģÑĤÐ°Ð²": 1265,
      "ÑģÑĤÐ°Ð»": 1266,
      "ÐµÐ½Ð¾": 1267,
      "Ð½Ð°Ðº": 1268,
      "ĠÑģÐ¾Ð²ÐµÑĢÑĪÐµÐ½Ð½Ð¾": 1269,
      "Ð¼Ð¾": 1270,
      "ĠÐ¼Ð¾Ð³Ñĥ": 1271,
      "ÑģÐºÐ¸Ñħ": 1272,
      "ĠÐ¼Ð¾Ð»Ñĩ": 1273,
      "ĠÐ½Ð°ÐºÐ¾Ð½ÐµÑĨ": 1274,
      "ĠÐ²ÐµÑĩÐµÑĢ": 1275,
      "Ð¾Ð½Ð°": 1276,
      "ĠÐŁÐ°Ð²": 1277,
      "ĠÑĥÐ»Ð¸": 1278,
      "ĠÑĤÐ¾ÑĤÑĩÐ°Ñģ": 1279,
      "ĠÐ´Ð²ÐµÑĢÑĮ": 1280,
      "ĠÑĢÐ°Ð±Ð¾ÑĤ": 1281,
      "ĠÐ¿Ð¸ÑģÑĮ": 1282,
      "ĠÐ·Ð»": 1283,
      "Ð°ÐµÑĤÐµ": 1284,
      "ÐºÐ¸Ð¼": 1285,
      "ÑĭÐ²Ð°Ñı": 1286,
      "ĠÐ´ÑĥÐ¼Ð°Ð»": 1287,
      "ÑĭÐ²Ð°Ð»": 1288,
      "ĠÐ·Ð°ÑĢ": 1289,
      "ÐµÐ»ÑĮÐ·Ñı": 1290,
      "ĠÐ¿Ð¾Ð¶Ð°Ð»": 1291,
      "Ð»ÑİÐ´": 1292,
      "ÐµÐ·Ð´": 1293,
      "ĠÐŁÐ¾Ð´": 1294,
      "ĠÐ²Ð¸Ð´ÐµÐ»": 1295,
      "),": 1296,
      "Ð½ÑĥÑĤ": 1297,
      "ĠÑĤÑĢÐ¸": 1298,
      "ĠÐ¤ÐµÐ´": 1299,
      "ÐµÐ·Ð¶": 1300,
      "ĠÐ²Ð¾ÑģÐº": 1301,
      "ĠÐ³Ð¾Ð´": 1302,
      "Ð»ÑıÐ»": 1303,
      "ĠÑģÐ¾Ð³": 1304,
      "ĠÐļÐ¾Ð³Ð´Ð°": 1305,
      "Ð»ÐµÑĤ": 1306,
      "ĠÐŁÑĮ": 1307,
      "ĠÐ³Ð¾ÑģÐ¿Ð¾Ð´": 1308,
      "ĠÑģÑĤÑĢÐ°ÑĪ": 1309,
      "ĠÐ¿ÑĢÑıÐ¼": 1310,
      "ĠÑģÐ¸Ð»ÑĮ": 1311,
      "ĠÐ¿ÑĢÐ¸Ñħ": 1312,
      "ĠÐ»ÑĥÑĩÑĪÐµ": 1313,
      "Ð°ÐµÑĪÑĮ": 1314,
      "ĠÐ±Ð»Ð°Ð³": 1315,
      "ĠÐ±ÐµÐ´": 1316,
      "ĠÐ¾Ð±ÑĢÐ°Ð·": 1317,
      "ĠÐ´ÐµÐ¹ÑģÑĤÐ²": 1318,
      "ĠÐ´Ð°Ð²": 1319,
      "ĠÑģÐ»ÐµÐ·": 1320,
      "Ð¾ÑĤÐ¾Ð¼": 1321,
      "ÐµÐ½ÐµÑĢ": 1322,
      "ĠÐ½Ð°ÑĩÐ°Ð»": 1323,
      "ĠÐ¼Ð°ÑĤÑĮ": 1324,
      "Ð½Ð¸Ð»": 1325,
      "ĠÐ±Ð¾": 1326,
      "ĠÐ´ÐµÑĢÐ¶": 1327,
      "ÑĥÑīÐµ": 1328,
      "ĠÐºÐ°Ð·Ð°Ð»Ð¾ÑģÑĮ": 1329,
      "Ð¸Ð²Ð°ÑĤÑĮ": 1330,
      "Ð²Ð°": 1331,
      "ĠÐ¿Ð¾Ð»ÑĥÑĩ": 1332,
      "ĠÐ¿ÑĢÐ¾Ñĩ": 1333,
      "Ð»Ð¾Ð¶": 1334,
      "Ð¸ÑģÐº": 1335,
      "ĠÐ²Ð·Ð³Ð»Ñı": 1336,
      "ÐµÑģÑĤÐ¾": 1337,
      "?\"": 1338,
      "ĠÐ´Ð¾Ñģ": 1339,
      "ĠÐ¿ÑĢÐ¸Ð·": 1340,
      "ÐµÑħÐ°Ð»": 1341,
      "ĠÐ³ÑĢÐ°ÑĦ": 1342,
      "Ð¾Ð±ÑĢÐ°Ð·": 1343,
      "ĠÐ¾Ð±ÑĢÐ°ÑĤ": 1344,
      "ĠÐľÑĭ": 1345,
      "ĠÐ½Ð¸ÐºÐ°Ðº": 1346,
      "ĠÐºÑĥÐ´Ð°": 1347,
      "Ð½Ð°Ñĩ": 1348,
      "Ð°ÑĢÐ¾Ð²": 1349,
      "ĠÑħÐ»": 1350,
      "ÐºÐ½ÑĥÐ»": 1351,
      "ĠÐ¾ÑģÐ¾Ð±ÐµÐ½Ð½Ð¾": 1352,
      "ĠÑĩÐ¸ÑĤ": 1353,
      "Ð°ÑĤÐµÐ»ÑĮÐ½Ð¾": 1354,
      "ÑĢÐ°Ð´": 1355,
      "ĠÐ´Ð¾Ð¼Ð°": 1356,
      "ÐµÐ²Ð½Ð°": 1357,
      "ĠÐ²ÑģÑİ": 1358,
      "ĠÐ·Ð½Ð°Ð»": 1359,
      "ĠÐ´Ð°Ð»": 1360,
      "Ð»ÐµÐ½Ð¸Ðµ": 1361,
      "ĠÑģÐ²Ð¾Ð¹": 1362,
      "ÐµÐ½Ð½ÑĭÑħ": 1363,
      "ĠÐĵÑĢÐ¸Ð³Ð¾ÑĢÐ¸Ð¹": 1364,
      "ĠÐ½Ð¾Ñģ": 1365,
      "ĠÐ±ÑĭÑģÑĤÑĢÐ¾": 1366,
      "ĠÑĤÐ°ÐºÐ¾Ðµ": 1367,
      "ĠÐ¿ÑĢÐ¾Ð±": 1368,
      "Ð»ÑİÑĩ": 1369,
      "ÐµÐ½Ð½ÑĭÐ¼": 1370,
      "ĠÐ²Ð¾Ð¹": 1371,
      "ĠÑĤÐ¸ÑħÐ¾": 1372,
      "ĠÐ¾ÑĤÑĩ": 1373,
      "Ð¸ÐºÐ°": 1374,
      "ĠÐ³Ð¾ÑģÑĤ": 1375,
      "ÑĤÑĮÑģÑı": 1376,
      "ĠÐ¾Ð´Ð½Ð¾": 1377,
      "ĠÐ·Ð½Ð°ÐºÐ¾Ð¼": 1378,
      "ĠÑĢÑĥÑģ": 1379,
      "ĠÐŁÐ¾Ñģ": 1380,
      "ĠÐºÐ¾ÑĤÐ¾ÑĢÐ¾Ð¹": 1381,
      "ÑıÐ¼Ð¸": 1382,
      "ÑĤÐ°ÐºÐ¸": 1383,
      "ĠÐ´Ð¾Ð»Ð³Ð¾": 1384,
      "ÑĥÑİÑī": 1385,
      "ÐĴ": 1386,
      "ĠÐ¿ÑĢÐ¾ÑģÑĤÐ¾": 1387,
      "ĠÑģÑĬ": 1388,
      "ĠÐŁÐµÑĤÑĢÐ¾Ð²": 1389,
      "Ð½ÐµÐ¼": 1390,
      "ĠÐ³ÑĢÐ¾Ð¼": 1391,
      "ĠÐ²Ð·Ð³Ð»ÑıÐ´": 1392,
      "ĠÐŀÐ½Ð¸": 1393,
      "ĠÐĺÐ²Ð°Ð½": 1394,
      "ĠÑģÐ²Ð¾Ð¸Ñħ": 1395,
      "ĠÑįÑĤÐ°": 1396,
      "ÑĪÐµÐ¹": 1397,
      "ĠÐ¿Ð¾ÑģÐ¼Ð¾ÑĤÑĢ": 1398,
      "Ð½Ð¾Ñģ": 1399,
      "Ð¼Ð°ÑĤ": 1400,
      "ÑģÐºÐ¸Ðµ": 1401,
      "ĠÐ²ÑĭÑĢÐ°Ð¶": 1402,
      "ĠÐ¼Ð¾ÑĢ": 1403,
      "ĠÐ¼ÐµÑģÑĤ": 1404,
      "Ð½ÑĥÐ»Ð°ÑģÑĮ": 1405,
      "ĠÐ¼ÑĭÑģÐ»": 1406,
      "ĠÑĢÑĥÐ±": 1407,
      "ĠÐºÑĢÐ¾Ð²": 1408,
      "ÐµÐ½Ð½Ð¾Ð³Ð¾": 1409,
      "ĠÐ¡ÑĤÐµÐ¿": 1410,
      "ĠÑģÐ»ÑĥÐ¶": 1411,
      "ĠÐ²Ð¼ÐµÑģÑĤÐµ": 1412,
      "ĠÐ¼Ð¾Ñı": 1413,
      "ĠÑģÑĥÐ´": 1414,
      "ĠÐ½Ð°ÑĢÐ¾Ð´": 1415,
      "Ð»ÐµÐ½Ð¸Ñı": 1416,
      "Ð°ÑĢÑĮ": 1417,
      "ÑıÑĩ": 1418,
      "ĠÐ±Ð°Ð±": 1419,
      "ĠÑħÐ¾Ð»Ð¾Ð´": 1420,
      "ĠÑĤÑĢÑĥÐ´": 1421,
      "Ð¾Ð²Ð¾Ð¹": 1422,
      "ĠÑĤÐ¾Ð¼Ñĥ": 1423,
      "ĠÑģÑĢÐµÐ´": 1424,
      "ĠÐ¿Ð¾Ð²ÑĤÐ¾ÑĢ": 1425,
      "Ð½Ð°ÐºÐ¾": 1426,
      "ĠÐ½ÐµÐ»ÑĮÐ·Ñı": 1427,
      "ĠÐĴÐ°Ñģ": 1428,
      "ĠÐ¿ÑĢÐ¸Ñģ": 1429,
      "ĠÐ±ÐµÑĢ": 1430,
      "ĠÐľÐ¸Ñħ": 1431,
      "ĠÐ¾ÑĦÐ¸ÑĨ": 1432,
      "ĠÑģÐ²Ð¾Ð¸Ð¼": 1433,
      "Ð»Ð¸Ñĩ": 1434,
      "ĠÑĢÐ°Ð·Ð´": 1435,
      "Ð¾Ð½ÑĮ": 1436,
      "ĠÐļÐ»Ð¸Ð¼": 1437,
      "ĠÑģÐ½Ð¾Ð²Ð°": 1438,
      "ÐµÑĢÐ¿": 1439,
      "ĠÑĥÑģÐ»": 1440,
      "Ð¼Ñĭ": 1441,
      "ĠÐ¿ÑıÑĤ": 1442,
      "ÑĢÐ¸Ðº": 1443,
      "ĠÐ²Ð½Ð¸Ð¼": 1444,
      "ĠÑĨÐµÐ»": 1445,
      "ĠÐ½ÐµÑĩ": 1446,
      "Ð¾Ð±Ð½Ð¾": 1447,
      "ĠÐ·Ð°Ð»": 1448,
      "ÑģÑĤÐ²Ð¾Ð¼": 1449,
      "ÑĭÐºÐ½Ð¾Ð²": 1450,
      ".-": 1451,
      "ĠÐºÐ¾ÑĤÐ¾ÑĢÐ°Ñı": 1452,
      "ĠÐĹÐ°": 1453,
      "ĠÑģÐ¿Ð¾ÐºÐ¾Ð¹": 1454,
      "Ð¼Ð°Ð½": 1455,
      "Ð»Ð¸ÑĪ": 1456,
      "ĠÐŁÑĢÐ¸": 1457,
      "ÑĢÐµ": 1458,
      "ĠÑĤÐµ": 1459,
      "ĠÐºÐ¾ÑĤÐ¾ÑĢÐ¾Ð³Ð¾": 1460,
      "ĠÐºÐ°Ð¶ÐµÑĤÑģÑı": 1461,
      "Ð·Ð°": 1462,
      "ÑĥÐ»ÑĮ": 1463,
      "ĠÐ¿Ð¾Ð²ÐµÑĢ": 1464,
      "ÐºÐ¸Ñħ": 1465,
      "ĠÑħÐ¾ÑĤÑĮ": 1466,
      "ĠÐ¿ÑĢÐµÐº": 1467,
      "ĠÐ¶Ð´": 1468,
      "ÐŁ": 1469,
      "ÐµÑĢÐ´": 1470,
      "ÐµÐ²Ð°": 1471,
      "ĠÐ·Ð´": 1472,
      "ĠÐ¿ÑĥÑģÑĤ": 1473,
      "ĠÐ²Ð¾Ð»Ð¾Ñģ": 1474,
      "ĠÐ¾ÑĤÐ²ÐµÑĤÐ¸Ð»": 1475,
      "ĠÑģÑĤÐ°Ð»Ð¾": 1476,
      "Ð½ÐµÑģ": 1477,
      "ÑİÑĪ": 1478,
      "ÐµÐ½Ð½Ð¾Ðµ": 1479,
      "ÑıÐ»Ð¸": 1480,
      "ĠÐľÐ½Ðµ": 1481,
      "ĠÐ¿Ð¾Ð´ÑĥÐ¼Ð°Ð»": 1482,
      "ĠÐ¡Ðº": 1483,
      "Ð¸ÑĩÐ°": 1484,
      "Ð°ÐºÐ¾Ð²": 1485,
      "ĠÑĪÐ¸ÑĢ": 1486,
      "ĠÐºÑĥÑĢ": 1487,
      "ÑĪÐµÐ³Ð¾": 1488,
      "ÑĪÐ¸Ðµ": 1489,
      "ÑĤÐµÑĢÐµÑģ": 1490,
      "ĠÐ½ÑĥÐ¶Ð½Ð¾": 1491,
      "ĠÐ¾Ð¶Ð¸Ð´": 1492,
      "ĠÑģÐ±": 1493,
      "ĠÑģÐ´": 1494,
      "ĠÐ³Ð¾Ð²Ð¾ÑĢÐ¸Ð»Ð°": 1495,
      "ĠÑıÑģ": 1496,
      "ĠÐ½ÐµÐ¿ÑĢÐ¸": 1497,
      "Ð°Ð½Ð¾": 1498,
      "Ð´Ð°ÑĤ": 1499,
      "Ð¾Ð´ÑĥÑĪ": 1500,
      "ĠÐºÐ°Ð¼": 1501,
      "ĠÐ¼ÐµÑĢ": 1502,
      "ĠÑĥÐ²ÐµÑĢ": 1503,
      "ĠÐ³Ð»ÑĥÐ¿": 1504,
      "ĠÐ²ÑĭÑħÐ¾Ð´": 1505,
      "ĠÑģÐµÑĢÐ´ÑĨÐµ": 1506,
      "ÑĢÐ¾ÑĩÐµÐ¼": 1507,
      "Ð°Ð½Ð½Ð¾": 1508,
      "ĠÐŀÐ±": 1509,
      "ĠÐ½Ð°ÑħÐ¾Ð´": 1510,
      "ĠÑĢÑĭ": 1511,
      "ÐĲ": 1512,
      "ĠÑģÐ¿ÑĢÐ°ÑĪ": 1513,
      "ĠÐ²Ð¿ÐµÑĢÐµÐ´": 1514,
      "ĠÑĢÐ°Ð·Ð±": 1515,
      "ĠÐºÑĢÑĥÐ³": 1516,
      "ĠÐ¿Ð¾ÑĩÐµÐ¼Ñĥ": 1517,
      "ĠÑĢÑıÐ´": 1518,
      "Ð²Ð°Ð»": 1519,
      "ĠÑįÑĤÐ¸Ñħ": 1520,
      "ÑıÑĤÐµÐ»ÑĮ": 1521,
      "ĠÐ¾ÑĤÐµÑĨ": 1522,
      "ĠÐ¾ÑĤÐºÑĢÑĭ": 1523,
      "ĠÐĶÐ°Ð²": 1524,
      "ĠÐ¿ÑĢÐ¸Ð¼": 1525,
      "ÑħÐ¾ÑĤ": 1526,
      "ĠÐ¾ÑĤÑĤ": 1527,
      "Ð°ÑĤÐ¸": 1528,
      "ĠÐ³Ð¾Ð»Ð¾ÑģÐ¾Ð¼": 1529,
      "ĠÐ²Ð¾Ð·Ð²": 1530,
      "ÑĭÐ¿": 1531,
      "ĠÐ±Ð»Ð°Ð³Ð¾": 1532,
      "ĠÐ¿Ð¾ÑĪÐµÐ»": 1533,
      "ÐµÐ½ÑĮÐºÐ°": 1534,
      "ĠÐ¾Ð´Ð½Ð°": 1535,
      "ĠÑģÑĤÐ¾ÑıÐ»": 1536,
      "ĠÐ´Ð°Ð¼": 1537,
      "Ġ1": 1538,
      "Ð½Ð¸ÑĨ": 1539,
      "ÑĢÐ°Ð½ÑĨÑĥÐ·": 1540,
      "ĠÐ»ÑİÐ±Ð¾Ð²": 1541,
      "ĠÐ´Ð½Ñı": 1542,
      "ĠÐ¿Ð¸Ñģ": 1543,
      "ĠÐ´Ð¾Ð²Ð¾Ð»ÑĮ": 1544,
      "Ð°Ð½Ð½ÑĭÐ¹": 1545,
      "Ð¸ÑĢÐ°": 1546,
      "ĠÐ¿ÑĢÐ¾Ðº": 1547,
      "ĠÐ¿ÑĢÐ¾Ð¿": 1548,
      "ĠÑĤÐ°": 1549,
      "ÑģÑĤÐ²Ðµ": 1550,
      "ĠÑĤÐ²Ð¾": 1551,
      "ĠÑĩÐ°": 1552,
      "ĠÑģÐ¾Ð·": 1553,
      "ĠÐŁÑĮÐµÑĢ": 1554,
      "ÑĤÐ¾ÑĢÐ°": 1555,
      "Ð¾Ð»Ñĩ": 1556,
      "ĠÐ¿ÑĢÐ¾Ð´Ð¾Ð»Ð¶Ð°Ð»": 1557,
      "ĠÐ¸Ð³ÑĢ": 1558,
      "ĠÐ´ÑĥÑħ": 1559,
      "Ð°Ð´ÑĨÐ°ÑĤÑĮ": 1560,
      "ĠÐĽÐµÐ²": 1561,
      "ĠÐ¿ÑĢÑıÐ¼Ð¾": 1562,
      "ĠÐ²ÑĭÐ±": 1563,
      "Ð¸ÐºÐ¸": 1564,
      "ÐµÐºÐ¾ÑĤÐ¾ÑĢ": 1565,
      "Ð³Ð°": 1566,
      "ĠÐ¾Ð´Ð½Ð¾Ð¹": 1567,
      "Ð²ÐµÑĢÐ´": 1568,
      "ĠÐ²ÐµÑĤ": 1569,
      "Ð¸ÐºÐ¾Ð²": 1570,
      "ĠÑĢÐ°ÑģÑģÐºÐ°Ð·": 1571,
      "ĠÐ¡Ð»": 1572,
      "ĠÐ½Ð°Ð±": 1573,
      "ĠÐ¿ÐµÑĩ": 1574,
      "ĠÐ¸Ð·Ð¼": 1575,
      "Ð»Ð¸ÑĪÐºÐ¾Ð¼": 1576,
      "Ð¾Ð»ÑĮÐ·": 1577,
      "ĠÐ½ÐµÐ·": 1578,
      "Ð¾Ð±ÑĢÐ°Ð¶": 1579,
      "ÐµÐ»ÐµÐ½": 1580,
      "ĠÐ³ÐµÐ½ÐµÑĢ": 1581,
      "ĠÐ²Ð¾ÑģÐºÐ»Ð¸": 1582,
      "ÑģÑĥÐ´": 1583,
      "ĠÐ¸Ð·Ð²ÐµÑģÑĤ": 1584,
      "?.": 1585,
      "ĠÐ´Ð°Ð²Ð½Ð¾": 1586,
      "ĠÐ½Ð°Ð·Ð°Ð´": 1587,
      "ĠÐ³Ð»ÑıÐ´Ñı": 1588,
      "ĠÐ¿ÑĢÐµÐ¶Ð´Ðµ": 1589,
      "ĠÐ·Ð½Ð°ÐµÑĤ": 1590,
      "ĠÐ´ÑĥÑĢ": 1591,
      "Ð¸Ð½ÑĥÐ»": 1592,
      "ÑĭÐ»ÑĮ": 1593,
      "ĠÑģÐ¿ÑĢÐ¾ÑģÐ¸Ð»Ð°": 1594,
      "ĠÐ½Ð¾Ð³Ð¸": 1595,
      "ĠÐºÑĢÐ¸Ñĩ": 1596,
      "ÑĢÐ°Ñĩ": 1597,
      "Ð¾ÑĢÐ°": 1598,
      "ÐµÐ³Ð¾Ð´Ð½Ñı": 1599,
      "ĠÐĲÑħ": 1600,
      "ÑĪÐ¸Ñħ": 1601,
      "ĠÐ·Ð°Ð½": 1602,
      "ĠÐ³Ð»Ð°Ð²": 1603,
      "ĠÐĲÐ»ÐµÐºÑģÐ°Ð½Ð´": 1604,
      "ĠÐŁÐ¾Ð»": 1605,
      "ĠÐ²Ð¾ÑĢÐ¾ÑĤ": 1606,
      "ĠÑįÑĤÐ¸Ð¼": 1607,
      "ĠÐļÐ¾Ð½": 1608,
      "ĠÑĪÐµÐ»": 1609,
      "ĠÐ°Ð½": 1610,
      "ĠÐ¸ÑģÐ¿ÑĥÐ³": 1611,
      "ÑĤÐ¸ÑĢ": 1612,
      "Ð½Ð¸Ð¸": 1613,
      "ÐºÐ¾Ð³Ð¾": 1614,
      "Ð¾Ð»Ð¾": 1615,
      "ĠÐºÐ¾Ð½ÐµÑĩÐ½Ð¾": 1616,
      "Ð¸Ð¾Ð½": 1617,
      "ĠÐ²ÑĭÐ´": 1618,
      "ÐµÐ½Ð½Ð°Ñı": 1619,
      "ĠÐ´ÐµÑģÑı": 1620,
      "Ð½Ð¾ÑĪ": 1621,
      "Ð½ÐµÐ³Ð¾": 1622,
      "ĠÐ¼Ð°Ð»ÑĮ": 1623,
      "ĠÐ²ÐµÑģÐµÐ»": 1624,
      "ĠÐ³Ð»ÑĥÐ±": 1625,
      "ĠÑģÐµÑģÑĤ": 1626,
      "ĠÐºÐ¾Ð½Ñĩ": 1627,
      "ĠÑģÐ°Ð¼Ð°": 1628,
      "ĠÑģÐ»Ð¸ÑĪÐºÐ¾Ð¼": 1629,
      "ĠÐ´Ð¸Ð²": 1630,
      "ĠÐ¾ÑĤÐ²ÐµÑĩÐ°Ð»": 1631,
      "ÑĤÑĢÐ°": 1632,
      "ĠÐ¸Ð¼ÐµÐ½Ð½Ð¾": 1633,
      "ĠÑģÑĥÐ¼": 1634,
      "ĠÐ±ÑĥÐ¼": 1635,
      "Ð°Ð½ÑĮ": 1636,
      "Ð¾ÑģÐºÐ²": 1637,
      "ĠÑĢÐµÐ·": 1638,
      "ĠÐºÑĥÐ¿": 1639,
      "ÑĥÐ³Ð¾": 1640,
      "ÐµÑĢÐ±": 1641,
      "ĠÐ¾Ð´Ð½Ð¾Ð³Ð¾": 1642,
      "ĠÐ½ÐµÐ¶": 1643,
      "ĠÐ¼Ð¸ÑĢ": 1644,
      "ĠÑĥÑĤÑĢ": 1645,
      "ÑĪÐ»Ð¸": 1646,
      "ÐºÐ¾Ðµ": 1647,
      "ĠÑĤÐµÐ»": 1648,
      "ĠÐ¿ÑĢÐ¸ÑħÐ¾Ð´": 1649,
      "ĠÐ²ÐµÐ»Ð¸Ðº": 1650,
      "ĠÐ´Ð»Ð¸Ð½": 1651,
      ".\"": 1652,
      "ĠÑģÑİ": 1653,
      "ĠÐºÑĢÐµÐ¿": 1654,
      "ĠÑİ": 1655,
      "Ð¼ÐµÑĤ": 1656,
      "Ð¸Ð²ÑĪÐ¸ÑģÑĮ": 1657,
      "ĠÑģÐ¼ÐµÑĢ": 1658,
      "ĠÐ²ÑĭÑĪÐµÐ»": 1659,
      "ÐµÐ»ÐµÐ¹": 1660,
      "ĠÑģÐ¾Ð»Ð½": 1661,
      "ÑĨÐ¸Ð¸": 1662,
      "ĠÐ¿ÑĢÐ¸Ñĩ": 1663,
      "ĠÐ»Ð°Ñģ": 1664,
      "ĠÐ¼Ð¾ÐµÐ¹": 1665,
      "ĠÐ¿Ð¾Ð¹": 1666,
      "ĠÐ¡Ð¿": 1667,
      "ĠÂ": 1668,
      "ĠÐºÐ°ÐºÐ¸Ðµ": 1669,
      "ĠÐ´Ð²Ð¸Ð¶": 1670,
      "ĠÑĥÐ·Ð½": 1671,
      "ÑĭÐ½": 1672,
      "Ð²Ð¾Ð·": 1673,
      "ĠÑĢÐµÐ²": 1674,
      "ĠÐķÑģÐ»Ð¸": 1675,
      "ĠÐ½ÐµÐºÐ¾ÑĤÐ¾ÑĢ": 1676,
      "ĠÑģÐ¾ÑģÑĤÐ¾": 1677,
      "ĠÑĤÐ¾Ð²Ð°ÑĢ": 1678,
      "ĠÐºÐ¾ÑĤÐ¾ÑĢÑĥÑİ": 1679,
      "ĠÐ¾Ð·": 1680,
      "ÑĪÐ°Ñı": 1681,
      "ĠÐ²Ð¾Ð·Ð´": 1682,
      "ĠÐºÐ¾ÑĤÐ¾ÑĢÐ¾Ðµ": 1683,
      "ĠÑĢÐµÐ±": 1684,
      "ĠÐ¾Ð±ÑĬÑıÑģ": 1685,
      "ĠÑĢÐµÑĩ": 1686,
      "ÑĩÐµÑĤ": 1687,
      "ÑģÑĤÐ¾": 1688,
      "ĠÑĩÑĥÑĤÑĮ": 1689,
      "ĠÐ¾Ð½Ð¾": 1690,
      "ÐµÑĢÐº": 1691,
      "ĠÑĢÑĥÐº": 1692,
      "ĠÐ·Ð°Ñĩ": 1693,
      "ÑģÐºÐ°Ñı": 1694,
      "ĠÐ½Ð¸Ð¼Ð¸": 1695,
      "ĠÐºÐ¾Ð³Ð¾": 1696,
      "ĠÐ¼Ð°ÑĤÐµÑĢÐ¸": 1697,
      "ÐµÑģÑģ": 1698,
      "ĠÐ¿ÑĢÐ¸Ð³": 1699,
      "ÑģÑıÑĩ": 1700,
      "ĠÐ²ÑĭÐ³": 1701,
      "ĠÐľÐ¾ÑģÐºÐ²": 1702,
      "Ð½Ð¸Ñħ": 1703,
      "ĠÐĲÐ½Ð´ÑĢÐµÐ¹": 1704,
      "Ð°Ð²ÑĪÐ¸Ð¹": 1705,
      "ÑĢÑĥ": 1706,
      "ĠÐ³Ð¾ÑĤÐ¾Ð²": 1707,
      "Ð¾Ð±Ð¾Ð´": 1708,
      "ĠÐ»Ð¸ÑĨÐ°": 1709,
      "ĠÑĤÑĥ": 1710,
      "Ð½Ð¸Ð·": 1711,
      "ĠÐ´Ð¾Ñĩ": 1712,
      "ĠÑĢÑĥÐºÐ°Ð¼Ð¸": 1713,
      "ĠÐ¾ÑĦÐ¸ÑĨÐµÑĢ": 1714,
      "Ð¾ÑĦ": 1715,
      "ĠÑĤÐµÑħ": 1716,
      "Ð¡": 1717,
      "ĠÑħÐ¾ÑĩÑĥ": 1718,
      "Ð½Ð¸ÑĨÑĭ": 1719,
      "ĠÐ¾ÑĢ": 1720,
      "ĠÑģÑĩÐ¸ÑĤ": 1721,
      "ĠÐ½Ñĥ": 1722,
      "ĠÐºÐ°Ð¿": 1723,
      "ĠÐ³Ð¾Ð»Ð¾Ð²Ð¾Ð¹": 1724,
      "ĠÐ±ÑĥÐ´Ñĥ": 1725,
      "Ðļ": 1726,
      "Ð»Ð¾Ð¼": 1727,
      "ĠÐ¶Ð¸ÑĤÑĮ": 1728,
      "ĠÑģÐ¾Ð»Ð´Ð°ÑĤ": 1729,
      "ĠÐ¾Ð±ÐµÐ´": 1730,
      "ĠÑıÑĢ": 1731,
      "ĠÐŁÐµÑĢÐµÐ´": 1732,
      ").": 1733,
      "ĠÐĴÐ°ÑĢÐ²Ð°ÑĢ": 1734,
      "ÑģÑĤÑĮÑİ": 1735,
      "ĠÐ¼Ð¾Ðµ": 1736,
      "ÐºÐ¾Ñİ": 1737,
      "ĠÐ²ÑĭÑģÐ¾Ðº": 1738,
      "Ð½ÐµÑĤ": 1739,
      "ĠÐºÐ»": 1740,
      "ĠÐ½Ð°Ð³": 1741,
      "Ð±Ñĭ": 1742,
      "ĠÑģÐ¾Ð³Ð»Ð°Ñģ": 1743,
      "ÑģÐºÐ¾Ð¼": 1744,
      "Ð½Ð¾ÑģÑĤÑĮÑİ": 1745,
      "ĠÐ±Ð»Ð¸Ð·": 1746,
      "ĠÐ¿Ð¾ÐºÐ°": 1747,
      "ĠÑģÐ¼Ðµ": 1748,
      "ĠÑģÐ¾Ð±Ð¾Ð¹": 1749,
      "ĠÑĤÐ¾Ð»Ð¿": 1750,
      "Ð¾Ð·Ð²": 1751,
      "ĠÐ¼ÑĭÑģÐ»Ð¸": 1752,
      "âĢĿ,": 1753,
      "Ð°ÐºÐ°": 1754,
      "Ð¼Ð¾ÑĤ": 1755,
      "Ð¿Ð¾Ð»": 1756,
      "Ð¾Ð½Ñĩ": 1757,
      "ĠÐ¿ÑĢÐµÐºÑĢÐ°Ñģ": 1758,
      "ĠÑĪÐµÐ¿": 1759,
      "ĠÐ´Ð¾Ð»Ð¶ÐµÐ½": 1760,
      "Ð±Ð¾": 1761,
      "ĠÐ¾Ð±ÑĢÐ°Ñī": 1762,
      "ĠÑĢÐ°ÑģÑģÐºÐ°Ð·ÑĭÐ²": 1763,
      "ÑĭÑĢ": 1764,
      "ĠÐľÐ°Ðº": 1765,
      "ĠÐ»Ð°Ð´": 1766,
      "Ð¸ÑĤÐ°": 1767,
      "Ð¾Ð¿ÑĭÑĤ": 1768,
      "Ð½Ð¸ÐºÐ¸": 1769,
      "ĠÐ´Ð²ÑĥÑħ": 1770,
      "ĠÐºÐ¾ÑĤÐ¾ÑĢÑĭÑħ": 1771,
      "ĠÐ´ÐµÐ»Ð°ÑĤÑĮ": 1772,
      "Ð¸Ð²Ð°Ð»Ð°": 1773,
      "ĠÐ½ÐµÑİ": 1774,
      "ĠÐ·Ð½Ð°ÐµÑĤÐµ": 1775,
      "Ð½Ð¸ÑĤÑĮ": 1776,
      "ĠÐ´Ð²Ðµ": 1777,
      "Ð¾ÑģÑĤÑĮÑİ": 1778,
      "ĠÐĿÐµÑħ": 1779,
      "ĠÑģÐ»Ð¾Ð²Ð¾": 1780,
      "ĠÐ²Ð¾Ð·Ð¼": 1781,
      "ĠÐĺÐ²Ð°Ð½Ð¾Ð²Ð¸Ñĩ": 1782,
      "ÐĶ": 1783,
      "ĠÐ¾ÑĤÑĨÐ°": 1784,
      "ÐµÑĢÑĤÐ²": 1785,
      "ĠÐ»ÐµÑģ": 1786,
      "ĠÐ¸Ð½ÑĤÐµÑĢÐµÑģ": 1787,
      "ĠÐºÐ°ÐºÐ°Ñı": 1788,
      "ĠÐ§ÐµÑĢ": 1789,
      "ĠÐ´ÑĢÐ¾Ð¶": 1790,
      "ĠÐĴÐµÐ´ÑĮ": 1791,
      "ĠÐĲÐ»": 1792,
      "ĠÑĥÐ´Ð°ÑĢ": 1793,
      "Ð¾Ð²Ð°Ð»Ð°": 1794,
      "ĠÐ¿ÑĢÐ¸Ð±Ð°Ð²": 1795,
      "ÑģÐºÐ°": 1796,
      "Ð²Ð¾Ð´": 1797,
      "ĠÐºÐ¾Ð¼Ð½Ð°ÑĤÐµ": 1798,
      "ĠÐºÑĢÐµÑģÑĤ": 1799,
      "Ð»Ñĥ": 1800,
      "ÑĢÑĥÑĪ": 1801,
      "Ð»Ð°Ð³": 1802,
      "ĠÑģÐºÐ¾ÑĢÐ¾": 1803,
      "ĠÐ´Ð°Ð»ÑĮ": 1804,
      "ĠÐ·Ð°Ð¼ÐµÑĩ": 1805,
      "Ġ.": 1806,
      "ĠÐ²ÑĢÐµÐ¼ÐµÐ½Ð¸": 1807,
      "ÑĥÑı": 1808,
      "ĠÑģÐ¸Ð´ÐµÐ»": 1809,
      "ĠÑģÐµÐ³Ð¾Ð´Ð½Ñı": 1810,
      "ĠÐ¼Ð¾Ð³Ð»Ð°": 1811,
      "Ðŀ": 1812,
      "ÑĨÐµÐ¼": 1813,
      "ĠÑģÑĩÐ°ÑģÑĤ": 1814,
      "ĠÐĿÐ°Ð´": 1815,
      "ÑīÐµÐµ": 1816,
      "ĠÐ³ÑĢÑĥÐ´": 1817,
      "ĠÐĲÐ½Ð½Ð°": 1818,
      "ĠÑĦÑĢÐ°Ð½ÑĨÑĥÐ·": 1819,
      "Ð¸Ð²Ð°ÑıÑģÑĮ": 1820,
      "ĠÐ²ÑģÑĤÑĢÐµÑĩ": 1821,
      "ĠÐ¸Ð·Ð±": 1822,
      "ÑģÑĤÐ²Ð¸Ðµ": 1823,
      "ÐµÐ¶Ð°Ð»": 1824,
      "ĠÐĴÐµÑĢ": 1825,
      "ĠÐ´Ð²ÐµÑĢÐ¸": 1826,
      "ĠÑģÐ¼Ð¾ÑĤÑĢÐµÐ»": 1827,
      "ĠÐµÑħ": 1828,
      "Ð°Ð»ÑĮÐ½Ð¾": 1829,
      "Ð¸ÐµÐ¼": 1830,
      "ĠÐ¿ÑĢÐ¾Ð¼": 1831,
      "ĠÑīÐµÐº": 1832,
      "Ð½Ð°ÑĤ": 1833,
      "ĠÐ¿Ð¾Ð´Ð½ÑıÐ»": 1834,
      "ĠÐ²Ð½Ñĥ": 1835,
      "ĠÐ±Ð°ÑĤ": 1836,
      "ĠÐ¿Ð¾Ð¶Ð°Ð»ÑĥÐ¹": 1837,
      "ĠÐ¿ÐµÑĢÐ²ÑĭÐ¹": 1838,
      "ĠÑģÐµÐº": 1839,
      "ĠÐ²ÑĤÐ¾ÑĢ": 1840,
      "ĠÐ»Ð¸ÑĪÑĮ": 1841,
      "ĠÑģÑĤÐ¾ÑĢÐ¾Ð½Ñĭ": 1842,
      "Ð¸Ð½Ñı": 1843,
      "Ð¸Ð´Ð½Ð¾": 1844,
      "ĠÐ±Ð»ÐµÐ´": 1845,
      "ĠÐ²Ð·Ð´Ð¾Ñħ": 1846,
      "ĠÑĤÑĭÑģÑıÑĩ": 1847,
      "ĠÐºÐ¾Ð¼Ð½Ð°ÑĤÑĥ": 1848,
      "Ð¾Ð´Ð°ÑĢ": 1849,
      "ĠÐºÐ°Ð±": 1850,
      "ĠÑģÐ°Ð¼Ð¾Ð¼": 1851,
      "ĠÐ½Ð¾ÑĩÑĮ": 1852,
      "ĠÑĤÐ¾Ð²Ð°ÑĢÐ¸Ñī": 1853,
      "ĠÐ³Ð¾Ð²Ð¾ÑĢÑİ": 1854,
      "ĠÐ·Ð°Ð¼ÐµÑĤÐ¸Ð»": 1855,
      "ĠÐ¿ÑıÑĤÑĮ": 1856,
      "ÑģÐºÑĥÑİ": 1857,
      "ĠÐļÐ°ÑĤ": 1858,
      "Ð¢": 1859,
      "ÑģÐºÐ¸Ð¼": 1860,
      "ÑģÐºÐ¸": 1861,
      "ĠÐ²Ñĩ": 1862,
      "ĠÐ¼ÑĥÑĩ": 1863,
      "ĠÐ¾Ð´Ð½Ð°ÐºÐ¾": 1864,
      "ĠÐķÐ³Ð¾": 1865,
      "Ð¾Ð¶Ð¸Ð´": 1866,
      "ĠÐŀÑĢ": 1867,
      "ĠÐ¿ÑĢÐ¸ÐºÐ°Ð·": 1868,
      "Ð¾Ð¼Ðµ": 1869,
      "ĠÐ¼Ð¾ÐµÐ³Ð¾": 1870,
      "ĠÐ´Ð¾Ð²Ð¾Ð»ÑĮÐ½Ð¾": 1871,
      "ÑıÐ»Ð°ÑģÑĮ": 1872,
      "Ð¼Ð°ÑĤÑĢ": 1873,
      "Ð¸Ð²Ð°Ð»Ð¸": 1874,
      "ĠÐ¿Ð»Ð°ÑĤ": 1875,
      "ĠÐ´Ð¾Ð±": 1876,
      "ĠÐ²Ð°Ð¼Ð¸": 1877,
      "ĠÐ¼Ð½Ð¾Ð¹": 1878,
      "ĠÐļÐ½Ñı": 1879,
      "Ð¸Ð¶Ñĥ": 1880,
      "ĠÐ¼ÐµÐ»": 1881,
      "ÐµÑĩÐ°ÑĤ": 1882,
      "Ð¼ÐµÑĢ": 1883,
      "ĠÐ¼Ð°Ð»Ð¾": 1884,
      "ĠÐłÐ°Ñģ": 1885,
      "ÐºÑĥÑİ": 1886,
      "ĠÐ¿Ð»Ð°": 1887,
      "ĠÐ½ÑĢÐ°Ð²": 1888,
      "Ð½Ð¸ÑĨÐ°": 1889,
      "ĠÐ´Ð¾Ð³": 1890,
      "ĠÑĢÐ°ÑģÐº": 1891,
      "ÑĤÑı": 1892,
      "ĠÐ¾ÑģÐ²": 1893,
      "ĠÐ¢Ð¾Ð»ÑĮÐºÐ¾": 1894,
      "ÑĥÑĪÐºÐ¸": 1895,
      "ÑĢÑıÐ´": 1896,
      "ĠÑĢÑĥÐºÐ¾Ð¹": 1897,
      "ĠÐ°Ð²": 1898,
      "ĠÐ·Ð°ÑģÑĤÐ°Ð²": 1899,
      "ĠÐ¼Ð¾Ð»ÑĩÐ°": 1900,
      "ÑĭÐ²Ð°ÑĤÑĮ": 1901,
      "Ð¾ÑħÐ¾ÑĤ": 1902,
      "Ð¾Ð²Ð°Ð½": 1903,
      "Ð°Ð·Ð´": 1904,
      "ÑĤÐ¾Ðµ": 1905,
      "Ð°Ð½Ñĥ": 1906,
      "ĠÐļÑĤÐ¾": 1907,
      "ĠÐ·ÑĥÐ±": 1908,
      "ĠÐĽÑİ": 1909,
      "ĠÐłÐ¾ÑģÑĤ": 1910,
      "ĠÐŁÐ°Ð²Ð»Ð¾Ð²": 1911,
      "ÑĢÐ¾ÑĤ": 1912,
      "ĠÑģÐ¼ÐµÑĪ": 1913,
      "ĠÐ½ÐµÐ½": 1914,
      "ĠÐ¢ÐµÐ¿ÐµÑĢÑĮ": 1915,
      "ĠÐ¿Ð°Ð¿": 1916,
      "ĠÐ¿ÑĢÐ¸ÑģÐ»": 1917,
      "ÑĥÑĢÐ³": 1918,
      "ĠÐ²ÑĭÐ·": 1919,
      "ĠÐ¿ÐµÑĢÐµÐ±": 1920,
      "ĠÐºÐ¾Ñģ": 1921,
      "ĠÐ¡ÑĤÐ°ÑĢ": 1922,
      "ĠÑģÐ²Ð¾ÐµÐ¼": 1923,
      "ĠÐ¼Ð³": 1924,
      "ÑĢÐ°Ð¼": 1925,
      "ÑĢÐ¸ÑĩÐ°Ð»": 1926,
      "ĠÑģÑĥÑīÐµ": 1927,
      "ĠÑħÐ¾Ð·ÑıÐ¹": 1928,
      "ĠÐĶÐ°Ð²ÑĭÐ´": 1929,
      "ĠÐ¿ÐµÑĢÐµÑģÑĤ": 1930,
      "Ð°ÑİÑĤÑģÑı": 1931,
      "ĠÑĥÑģÐ¼": 1932,
      "ĠÐ²ÑģÑĤÑĢÐµÑĤ": 1933,
      "ĠÐ¿ÑĥÑĤ": 1934,
      "Ð°Ñī": 1935,
      "Ð»Ð°Ð²": 1936,
      "ĠÐ½Ð°Ð¿ÑĢÐ°Ð²": 1937,
      "ĠÑģÑĤÐ¾ÑĢÐ¾Ð½Ñĥ": 1938,
      "ĠÐ¼ÐµÑģÑĤÐ¾": 1939,
      "ĠÑĪÑĥÐ¼": 1940,
      "ĠÐ¼ÑĭÑģÐ»ÑĮ": 1941,
      "Ð¾ÑĪÐ»Ð°": 1942,
      "ĠÐ´ÐµÐ»Ðµ": 1943,
      "ĠÑĩÑĥÐ²ÑģÑĤÐ²Ð¾Ð²Ð°Ð»": 1944,
      "ĠÐºÑĢÐ°Ð¹": 1945,
      "ĠÐ²Ð¸Ð´ÐµÑĤÑĮ": 1946,
      "ĠÐ¦": 1947,
      "ÑģÐ°": 1948,
      "Ð°Ð´Ð¸": 1949,
      "ÑĢÐ¸Ð¿": 1950,
      "ĠÐ·Ð°Ð´ÑĥÐ¼": 1951,
      "Ð²Ð¸": 1952,
      "ĠÐ´Ð¾Ð²": 1953,
      "ĠÐ¿ÐµÑĢÐµÐ²": 1954,
      "ĠÑĩÐ°ÑģÑĤÐ¾": 1955,
      "ĠÑģÑĤÐ°Ð»Ð°": 1956,
      "Ð±Ñĥ": 1957,
      "ĠÐ¶ÐµÑģÑĤ": 1958,
      "Ð±Ð°": 1959,
      "ĠÐ²Ð·ÑıÐ»": 1960,
      "ĠÐ¸Ð½Ð¾Ð³Ð´Ð°": 1961,
      "ĠÑĤÐ¾Ð¹": 1962,
      "Ð»ÑĥÑĪ": 1963,
      "ĠÑĩÑĢÐµÐ·": 1964,
      "ÑĢÐµÑĤ": 1965,
      "ĠÑģÐ°Ð¼Ð¸": 1966,
      "ĠÐ²Ð°Ð¶": 1967,
      "ĠÑĤÐ¾Ð±": 1968,
      "ÑĪÐµÐµ": 1969,
      "ĠÐ½Ð¸ÐºÑĤÐ¾": 1970,
      "ĠÐ¿Ð¾Ð´Ð½Ñı": 1971,
      "ĠÐ²ÐµÑī": 1972,
      "ĠÑĢÐ°ÑģÑĤ": 1973,
      "ĠÐºÐ°ÐºÐ¾Ðµ": 1974,
      "ĠÑģÐµÐ»": 1975,
      "ĠÐ¿ÑĢÐ¸ÑıÑĤ": 1976,
      "ĠÐ´Ð¾Ð»Ð¶Ð½Ð¾": 1977,
      "Ð¾Ð½Ñı": 1978,
      "ĠÐ»Ð¸ÑĨÐµ": 1979,
      "ĠÐĳÐ¾Ð³": 1980,
      "âĢĿ.": 1981,
      "ÑĪÐ¸Ð¼": 1982,
      "ĠÐ¿ÑĢÐ¸Ð»": 1983,
      "ĠÐĶÐ¾Ð»": 1984,
      "ĠÐ¢ÑĥÑĤ": 1985,
      "ÑĤÐ¾Ð¼": 1986,
      "ĠÐºÐ²Ð°ÑĢ": 1987,
      "ĠÑĩÐµÑĤÑĭ": 1988,
      "ĠÐ²Ð¾Ð·Ð´ÑĥÑħ": 1989,
      "ĠÐĿÐµÑħÐ»ÑİÐ´": 1990,
      "ĠÐ¾ÐºÐ¾Ð»Ð¾": 1991,
      "Ð¾Ð²Ñĥ": 1992,
      "ĠÑģÐ°Ð¼Ð¾Ð³Ð¾": 1993,
      "ĠÑĩÑĥÐ´": 1994,
      "Ð¾ÐºÐ°": 1995,
      "ÐºÐ¾Ð½": 1996,
      "ĠÐ·Ð´Ð¾ÑĢÐ¾Ð²": 1997,
      "Ð½ÑĥÐ²ÑĪÐ¸ÑģÑĮ": 1998,
      "ĠÑĤÐµÑĢ": 1999,
      "Ð½Ð¸ÑĨÑĥ": 2000,
      "Ð¾ÑĤÐ°": 2001,
      "ĠÐ³Ð¾ÑģÑĥÐ´": 2002,
      "ĠÐ¡ÐµÑĢÐ³": 2003,
      "ÑĮÐ¸": 2004,
      "ĠÐķÐ²": 2005,
      "ĠÑģÑĤÑĢÐ°Ñħ": 2006,
      "ÑģÑĤÐ²Ñĥ": 2007,
      "ĠÑĩÑĥÐ¶": 2008,
      "ĠÐ³Ð¾Ð´Ð°": 2009,
      "ĠÑģÑĤÐµÐ½": 2010,
      "ĠÑıÐ·": 2011,
      "ĠÐĳÑĭ": 2012,
      "ĠÐ¿Ð¾ÑħÐ¾Ð¶": 2013,
      "ĠÐ½Ð°Ð»": 2014,
      "ĠÐĿÐ¸ÐºÐ¾Ð»Ð°Ð¹": 2015,
      "ĠÐ¾Ð±ÑīÐµ": 2016,
      "ĠÐ³Ð¾Ð²Ð¾ÑĢÐ¸Ð»Ð¸": 2017,
      "ÑĢÐ°Ð·Ñĥ": 2018,
      "ĠÐ²Ð¾Ð²": 2019,
      "ĠÑĤÐ°ÐºÐ¸Ðµ": 2020,
      "ĠÑĤÐ²ÐµÑĢÐ´": 2021,
      "ĠÑĤÐ¾ÑĢÐ¾Ð¿": 2022,
      "ĠÐ½ÐµÐ¸Ð·": 2023,
      "ĠÑĤÐµÐ¿": 2024,
      "Ð¾Ð²Ð¸Ñĩ": 2025,
      "ĠÐ¶ÐµÐ½ÑīÐ¸Ð½Ð°": 2026,
      "ĠÑģÑĤÐ°Ð½Ð¾Ð²": 2027,
      "ĠÐĲÐ»ÐµÐºÑģÐ°Ð½Ð´ÑĢÐ¾Ð²": 2028,
      "Ð½Ð°ÑĤÑĮ": 2029,
      "ĠÐ¼ÐµÑĪ": 2030,
      "ĠÐ¿Ð»Ð°ÑĤÑĮ": 2031,
      "ĠÐ´Ð¾Ð¼Ð¾Ð¹": 2032,
      "ĠÐ¿ÑĢÐ¾Ð³Ð¾Ð²Ð¾ÑĢÐ¸Ð»": 2033,
      "ĠÐĽÐ¸Ð·": 2034,
      "ĠÐ¼Ð½Ð¾Ð³": 2035,
      "ĠÐ¼ÐµÑģÑı": 2036,
      "ĠÐ¿ÐµÑĢÐµ": 2037,
      "ĠÐ¿Ð¾ÑĩÑĥÐ²ÑģÑĤÐ²": 2038,
      "ĠÐ½ÐµÐº": 2039,
      "ĠÑĥÑģÑĤ": 2040,
      "ĠÐ²ÑģÐ¿": 2041,
      "ĠÐ³Ð¾Ð»ÑĥÐ±": 2042,
      "ĠÐ·Ð°ÑĩÐµÐ¼": 2043,
      "Ð¾Ð±Ñī": 2044,
      "ĠÐ¿ÑĢÐ¸ÑĤ": 2045,
      "ĠÑħÑĥ": 2046,
      "ĠÐ´ÐµÐ¹ÑģÑĤÐ²Ð¸ÑĤÐµÐ»ÑĮÐ½Ð¾": 2047,
      "ĠÑģÐ¾Ð±Ð¾Ñİ": 2048,
      "ĠÑģÑĤÐ°ÑĢÐ¸Ðº": 2049,
      "ĠÐ»Ð¸ÑĨÐ¾Ð¼": 2050,
      "ĠÑĢÑıÐ´Ð¾Ð¼": 2051,
      "Ð¸Ð²Ð°ÐµÑĤ": 2052,
      "Ð¾Ð±ÑīÐµ": 2053,
      "ĠÐºÑĢÐ¸ÐºÐ½ÑĥÐ»": 2054,
      "ĠÐ¾ÐºÐ½Ð°": 2055,
      "ĠÐĿÐ°ÑģÑĤ": 2056,
      "ĠÑģÐºÐ¾Ð»ÑĮÐºÐ¾": 2057,
      "ĠÐ³ÐµÐ½ÐµÑĢÐ°Ð»": 2058,
      "ÐµÐ½Ð½ÑĥÑİ": 2059,
      "Â»": 2060,
      "ĠÐ´ÐµÐ½ÑĮÐ³Ð¸": 2061,
      "ĠÐ²ÑĢ": 2062,
      "ĠÐºÐ°ÐºÐ¸Ð¼": 2063,
      "ĠÐĴÑģ": 2064,
      "ĠÐ·Ð½Ð°Ñĩ": 2065,
      "ĠÐŁÐµÑĤÑĢ": 2066,
      "Ð¼Ð¸ÑĤ": 2067,
      "Ð°Ð½Ñĭ": 2068,
      "ĠÐĽÑİÐ±": 2069,
      "ĠÑģÑİÐ´Ð°": 2070,
      "ĠÑĥÐ»ÑĭÐ±Ð°ÑıÑģÑĮ": 2071,
      "ĠÐºÑĢÐ¾Ð¼Ðµ": 2072,
      "ĠÐ¿Ð¸ÑģÑĮÐ¼Ð¾": 2073,
      "ĠÐ¤Ð¾Ð¼": 2074,
      "Ð¾ÑģÑģ": 2075,
      "ĠÐ¼Ð³Ð½Ð¾Ð²": 2076,
      "ĠÐ·Ð½Ð°ÑĤÑĮ": 2077,
      "ĠÑģÐ´ÐµÐ»Ð°ÑĤÑĮ": 2078,
      "ĠÑĤÐ°ÐºÐ¸Ð¼": 2079,
      "Ð¾ÑģÑĤÐ°Ð²": 2080,
      "ÑĥÑģÑĤÑĮ": 2081,
      "ĠÐºÐ¾ÑĤÐ¾ÑĢÐ¾Ð¼": 2082,
      "Ð°ÑĤÑĭÐ¹": 2083,
      "Ð°Ð½Ðµ": 2084,
      "Ð»ÐµÐ½Ð°": 2085,
      "ĠÐ¾Ð±Ð»": 2086,
      "ĠÐ·Ð¾Ð»": 2087,
      "ÐµÑĢÑĮÐµÐ·": 2088,
      "ĠÂ«": 2089,
      "ÑĭÑĩÐ°Ð¹": 2090,
      "ĠÑĨÐµÑĢ": 2091,
      "ĠÑĥÑħ": 2092,
      "ĠÐ¼Ð¾Ð¸": 2093,
      "ÑĢÐµÑģÑĤ": 2094,
      "Ð¾Ð¼Ð½": 2095,
      "ÑģÐºÐ¾ÑĢ": 2096,
      "Ð°Ð´ÑĮ": 2097,
      "ĠÑģÐ»Ð°Ð±": 2098,
      "ĠÑĢÐ°Ð²": 2099,
      "Ð¾ÑĩÐºÐ°": 2100,
      "ĠÐ¾ÑĤÐ¿ÑĢÐ°Ð²": 2101,
      "ĠÑĤÑıÐ¶ÐµÐ»": 2102,
      "ĠÑģÑĩÐ°": 2103,
      "ĠÑĪÑĥÑĤ": 2104,
      "Ñ£Ð»": 2105,
      "ÑıÑĤÑĮÑģÑı": 2106,
      "ĠÐ³Ð¾ÑĢÑıÑĩ": 2107,
      "Ð¼Ð¾ÑĤÑĢÑı": 2108,
      "ĠÐµÐ¶": 2109,
      "ĠÐ¾Ð¿Ð°Ñģ": 2110,
      "Ð¼ÑĥÑī": 2111,
      "ĠÐ¿Ð¾ÑģÐ¿": 2112,
      "ĠÐļÐ¾ÑĢ": 2113,
      "ĠÐ²Ð¸Ð´Ð½Ð¾": 2114,
      "ĠÑģÐ»Ð¾Ð²Ð½Ð¾": 2115,
      "ĠÑĤÐ¾Ð»ÑģÑĤ": 2116,
      "ĠÑĤÑĢÐµÐ±": 2117,
      "Ġ[": 2118,
      "ĠÑģÑĩÐ°ÑģÑĤÐ»Ð¸Ð²": 2119,
      "ĠÐĴÐ¾": 2120,
      "ĠÐ¾ÐºÐ°Ð·": 2121,
      "ÐµÐ¼ÐµÐ½": 2122,
      "ĠÐ¼Ð°Ð»ÑĮÑĩÐ¸Ðº": 2123,
      "ĠÐ®": 2124,
      "Ð°Ð½Ð½ÑĭÐµ": 2125,
      "ĠÐ·Ð°Ð²ÑĤÑĢÐ°": 2126,
      "Ð¾Ð²Ð°Ð»Ð¸": 2127,
      "ĠÐ±ÐµÐ³": 2128,
      "ĠÑĩÐ¸Ñģ": 2129,
      "Ð¾Ð¶Ð°Ð»": 2130,
      "ĠÑĢÐ°Ð·ÑĥÐ¼": 2131,
      "ĠÑĤÑĢÐµÐ²": 2132,
      "Ð¾Ð»Ð¾Ñģ": 2133,
      "ĠÐĿÐ°Ð¿": 2134,
      "ĠÐ¾Ð´Ð½Ñĥ": 2135,
      "ĠÐ¼Ð¸Ð¼Ð¾": 2136,
      "ĠÐ²Ð¾ÑģÐ¿": 2137,
      "ÐµÐ»Ñİ": 2138,
      "ĠÐ²Ð¾Ðº": 2139,
      "ĠÐ¾ÑģÑĤÑĢ": 2140,
      "Ð¸ÑĤÐµÑģÑĮ": 2141,
      "ĠÐºÐ¾Ð¼Ð½Ð°ÑĤÑĭ": 2142,
      "ĠÐ½Ð°Ð¹": 2143,
      "Ð²Ðµ": 2144,
      "ÑĭÑģ": 2145,
      "Ð¸Ð²Ð¾": 2146,
      "Ð»ÑıÐ´ÑĭÐ²": 2147,
      "Ð²Ð¸Ð¶": 2148,
      "ĠÐ½Ð°Ð·ÑĭÐ²": 2149,
      "ĠÐĵÐ¾Ñģ": 2150,
      "ĠÐ¸ÑģÐ¿ÑĭÑĤ": 2151,
      "Ð¾ÑĤÑĭ": 2152,
      "ĠÑģÐºÐ²Ð¾Ð·": 2153,
      "ĠÑģÐ²Ð¸Ð´": 2154,
      "ĠÐ²Ð»Ð°": 2155,
      "ĠÑĩÑĥÐ²ÑģÑĤÐ²Ð¾": 2156,
      "ĠÐ¾ÑĤÐ½Ð¾ÑĪ": 2157,
      "ĠÐ¿ÑĢÐ¸Ð½Ð¸Ð¼": 2158,
      "ĠÑģÐ¾ÑĢ": 2159,
      "ĠÐļÐ°ÑĢ": 2160,
      "ĠÐ´ÐµÐ»Ð°": 2161,
      "ÑĨÐ°Ð¼Ð¸": 2162,
      "ĠÐ´ÑĢÑĥÐ¶": 2163,
      "Ð½ÑĥÐ»Ð¸": 2164,
      "Ðľ": 2165,
      "ĠÐ·Ð°Ð½Ð¸Ð¼": 2166,
      "ÐºÐ¸Ð¼Ð¸": 2167,
      "ĠÐ¼ÑıÐ³": 2168,
      "ĠÐ¡Ð°Ð¼Ð³": 2169,
      "ĠÐĶÐ¼Ð¸ÑĤ": 2170,
      "ÑĩÐ¸Ð²Ð¾": 2171,
      "Ð¾Ð·Ð¼": 2172,
      "ĠÐĺÐ½": 2173,
      "Ð¾ÑģÐ¾Ð±": 2174,
      "ĠÐ¼Ð¾Ð»Ð¾Ð´Ð¾Ð¹": 2175,
      "ÑĤÐ°Ð¼": 2176,
      "ĠÐ¸ÑģÑĤÐ¾ÑĢ": 2177,
      "ĠÑģÑĤÐ°Ð»Ð¸": 2178,
      "ĠÐľÐ¸ÑħÐ°Ð¹": 2179,
      "ÑĥÑĢÐ°": 2180,
      "ÐµÐµÑĤ": 2181,
      "ĠÐĲÐ»ÐµÑĪ": 2182,
      "Ð¾Ð»Ð½": 2183,
      "ÑĨÐ¾Ð²": 2184,
      "ĠÐ¿ÑĢÐ°Ð²Ð´Ð°": 2185,
      "ĠÐ¾Ñī": 2186,
      "ĠÐŁÐ¾ÑĤÐ¾Ð¼": 2187,
      "ĠÑģÐ²Ð¾Ð±Ð¾Ð´": 2188,
      "ĠÐ¿Ð¾Ð´Ð¾ÑĪÐµÐ»": 2189,
      "ĠÐ»Ð¸ÑĪ": 2190,
      "ĠÐ¿ÑĢÐµÐ´Ð»Ð¾Ð¶": 2191,
      "Ð³Ð°ÑĢ": 2192,
      "Ð½Ð¸ÑĤ": 2193,
      "ĠÐ½ÐµÐ¼Ð½Ð¾Ð³Ð¾": 2194,
      "ĠÐºÐ½Ð¸Ð³": 2195,
      "Ð»ÐµÐ¹": 2196,
      "ĠÐ·Ð½Ð°ÐµÑĪÑĮ": 2197,
      "ÑĢÐ¾Ðº": 2198,
      "ĠÐ»ÐµÐ²": 2199,
      "ĠÐ±ÐµÑģÑģ": 2200,
      "ĠÐ²Ð°ÑĪÐµ": 2201,
      "Ð¾Ð¶ÐµÑĤ": 2202,
      "ÑĢÐµÐ¼ÐµÐ½Ð½Ð¾": 2203,
      "ĠÐ±Ð»ÐµÑģÑĤ": 2204,
      "ĠÐ¡Ð¼": 2205,
      "ĠÐ½Ð°ÑģÑĤÐ¾": 2206,
      "ĠÑģÐ²ÑıÐ·": 2207,
      "ÑĢÐµÐ±": 2208,
      "ÑĢÐµÐ¶": 2209,
      "ĠÑĢÐ°Ð·Ð¼": 2210,
      "ĠÑĢÐ°Ð´Ð¾ÑģÑĤ": 2211,
      "ĠÐ²ÑģÑĤÐ°Ð»": 2212,
      "ĠÐ²Ð¿ÑĢÐ¾ÑĩÐµÐ¼": 2213,
      "ĠÐ¼ÐµÐ´Ð»ÐµÐ½Ð½Ð¾": 2214,
      "Ð½Ð°ÐºÐ¾Ð¼": 2215,
      "ĠÑĢÐ¾Ð·": 2216,
      "ĠÐ´ÑĥÐ¼Ð°Ñİ": 2217,
      "Ð¸ÑĤÐ¾": 2218,
      "ĠÑģÐ¾Ñĩ": 2219,
      "ĠÐ¿ÑĮÑı": 2220,
      "ĠÐºÐ¾ÑĢÐ¾ÑĤ": 2221,
      "ĠÑģÐµÑĢÑĮÐµÐ·": 2222,
      "ĠÐ½Ð¸Ð·": 2223,
      "ÐºÑģ": 2224,
      "Ð°ÑĢÐ°": 2225,
      "ĠÑĪÐ»Ñı": 2226,
      "Ð»ÑİÐ±": 2227,
      "ĠÐ¸ÑģÑĤ": 2228,
      "ĠÐ¿ÑĢÐ¾Ñī": 2229,
      "ĠÐ²Ð¿Ð¾Ð»": 2230,
      "ĠÐ±Ð°Ð»": 2231,
      "ĠÑħÑĥÐ´": 2232,
      "ĠÐ²ÐµÑĢÑħ": 2233,
      "ĠÐ´ÑĭÐ¼": 2234,
      "ĠÑħÐ¾ÑĤÐµÐ»Ð¾ÑģÑĮ": 2235,
      "ĠÑģÑĥÑħ": 2236,
      "ĠÑĤÐµÑĤ": 2237,
      "Ð½Ð¸Ð½": 2238,
      "ĠÑģÐ²ÐµÑĢ": 2239,
      "ĠÐ¾Ð±Ñī": 2240,
      "Ñ£ÑĤ": 2241,
      "ĠÐ¼Ð°Ñģ": 2242,
      "ĠÐ¿Ð¾ÑĨ": 2243,
      "ĠÑĢÐ°Ð·Ð´ÑĢ": 2244,
      "ĠÐ³Ð»Ð°Ð·Ð°Ñħ": 2245,
      "ĠÑģÑĤÐ°Ð½": 2246,
      "ĠÐĵÐ¾ÑĢ": 2247,
      "ĠÐĽÐ¸ÑĤ": 2248,
      "ĠÐ±Ð¾ÑĢÐ¾Ð´": 2249,
      "ÑĪÐ°": 2250,
      "ĠÐµÐ´Ð²Ð°": 2251,
      "ÑģÐºÐ¾Ðµ": 2252,
      "ĠÑĨÐ²ÐµÑĤ": 2253,
      "ĠÑĢÐµÐ´": 2254,
      "ĠÑĥÑħÐ¾Ð´": 2255,
      "ÐµÑĢÐ±ÑĥÑĢÐ³": 2256,
      "ĠÑģÑĤÐµÐ¿": 2257,
      "ĠÐ¾Ð±ÑĭÐºÐ½Ð¾Ð²": 2258,
      "ĠÑĪÐ¸ÑĢÐ¾Ðº": 2259,
      "ĠÐ´ÑĢÑĥÐ³Ð¸Ñħ": 2260,
      "ĠÐ¼Ð°Ð¼": 2261,
      "ĠÐºÑĢÐµÑģ": 2262,
      "ĠÐľÐ¸ÑĤ": 2263,
      "ĠÐĺÐ²Ð°Ð½Ð¾Ð²Ð½Ð°": 2264,
      "ÑĥÐºÐ¸": 2265,
      "ĠÐ¿ÑĢÐµÐ²": 2266,
      "ĠÐ¿ÑĢÐµÐ·": 2267,
      "ĠÐ±ÑĥÐ¼Ð°Ð³": 2268,
      "ĠÐ¿Ð¾Ð·Ð´": 2269,
      "ĠÑģÐ»ÑĥÑĩÐ°": 2270,
      "ĠÐ»Ð°ÑģÐºÐ¾Ð²": 2271,
      "Ð´Ñĭ": 2272,
      "ĠÐ¢Ð¾": 2273,
      "ĠÐľÐ°ÑĢÑĮÑı": 2274,
      "ĠÐ¾Ð³ÑĢÐ¾Ð¼": 2275,
      "ĠÑĢÐ°Ð²Ð½Ð¾": 2276,
      "Ð°Ð¼Ð¿": 2277,
      "ĠÑĦÐ¸Ð³": 2278,
      "ĠÐ³Ð¾Ð²Ð¾ÑĢÑıÑĤ": 2279,
      "ĠÐ´Ð¾Ð¼Ðµ": 2280,
      "ĠÐ¼ÐµÑĩ": 2281,
      "Ð½Ð¸ÑĨÐµ": 2282,
      "ĠÐ¾ÑħÐ¾ÑĤ": 2283,
      "Ð¾Ð»Ðµ": 2284,
      "ĠÑģÑĢÐ°Ð·Ñĥ": 2285,
      "ĠÑģÐ¼ÐµÑħ": 2286,
      "ĠÐŁÐ°ÑĢ": 2287,
      "Ð°Ð½Ð¸Ð¸": 2288,
      "ĠÐ¿Ð¾ÑĪ": 2289,
      "Ð½ÑİÑİ": 2290,
      "ĠÐ¸ÑģÑĩ": 2291,
      "Ð¾ÑĢÑĤ": 2292,
      "ĠÐ·Ð°Ñħ": 2293,
      "ĠÐºÐ¾ÑĤÐ¾ÑĢÑĭÐ¼": 2294,
      "ÑĪÐ¸Ð±": 2295,
      "ĠÐ¿ÑĢÐ¾Ð½": 2296,
      "Ð°Ð²Ð°Ð»": 2297,
      "ĠÐ¾Ð½ÑĬ": 2298,
      "ĠÑĪÑĤ": 2299,
      "ĠÑĢÑĥÐºÐ°Ñħ": 2300,
      "Ð°Ð½Ð¸ÐµÐ¼": 2301,
      "Ð²Ð¸Ð³": 2302,
      "ĠÑĩÐµÑĤ": 2303,
      "ĠÐ¯ÐºÐ¾Ð²": 2304,
      "ĠÐ½Ð°Ð¿Ð¸Ñģ": 2305,
      "ĠÐ¿Ð¾Ð´Ð½Ð¸Ð¼": 2306,
      "ĠÐ¿Ð¾ÑĢÑıÐ´": 2307,
      "ĠÑĢÐ°Ð·Ð´ÑĢÐ°Ð¶": 2308,
      "ĠÑģÑħÐ²Ð°ÑĤ": 2309,
      "ĠÐ¿Ð¾Ð½Ð¸Ð¼Ð°Ñİ": 2310,
      "ĠÐ´ÑĢÑĥÐ³Ð°": 2311,
      "ÑĢÑĭÑĤ": 2312,
      "Ð¸Ð¼ÑģÑı": 2313,
      "ĠÐ¼Ð¾Ñİ": 2314,
      "ÑĢÐ¾ÑĤÐ¸Ð²": 2315,
      "ĠÐ¼Ð¾Ð½": 2316,
      "ĠÐŁÐ¾Ñĩ": 2317,
      "ĠÐºÐ²Ð°ÑĢÑĤÐ¸ÑĢ": 2318,
      "Ð»ÐµÑĩ": 2319,
      "ĠÐ²ÑģÑĤ": 2320,
      "ĠÐ½ÐµÐ¾Ð¶Ð¸Ð´": 2321,
      "ĠÐµÐ´Ð¸Ð½": 2322,
      "ĠÐ²Ð¾ÑĪÐµÐ»": 2323,
      "ĠÐ¼ÐµÐ»ÑĮ": 2324,
      "ĠÐ»ÑİÐ±Ð¾Ð¿ÑĭÑĤ": 2325,
      "ÑĢÐµÐ²": 2326,
      "Ð½ÑıÑı": 2327,
      "ĠÑģÑĤÐµÐº": 2328,
      "ĠÐ¾Ð¿ÑĥÑģÑĤ": 2329,
      "ĠÑĥÐ´Ð¾Ð²Ð¾Ð»ÑĮ": 2330,
      "ĠÑģÐ¾Ð¾Ð±Ñī": 2331,
      "ÐºÐ¸Ð½": 2332,
      "ĠÑĢÐµÐ±ÐµÐ½": 2333,
      "ÐµÑģÑĤÐ½Ð¾": 2334,
      "ĠÑģÐºÐ²Ð¾Ð·ÑĮ": 2335,
      "ĠÐ·Ð½Ð°ÑĩÐ¸ÑĤ": 2336,
      "ĠÐ¿ÐµÑģ": 2337,
      "ĠÐ²Ð¸Ð½Ð¾Ð²": 2338,
      "ĠÐ¾ÑģÑĤÐ°Ð½Ð¾Ð²Ð¸Ð»ÑģÑı": 2339,
      "ĠÑģÐ¾ÑĤ": 2340,
      "ĠÑģÐµÐ´": 2341,
      "Ð¸Ð²ÑĪÐ¸Ð¹": 2342,
      "ĠÐ²Ð¾Ð²ÑģÐµ": 2343,
      "ĠÑģÐºÑĥÑĩ": 2344,
      "ĠÐĳÐ¾ÑĢ": 2345,
      "ĠÐ²ÐµÑģÐµÐ»Ð¾": 2346,
      "ĠÐĹÐ½Ð°": 2347,
      "ĠÐ¿Ð¾ÑģÑĤÑĥÐ¿": 2348,
      "ĠÐ¿Ð¾ÑıÐ²": 2349,
      "Ð¾Ð²Ð¾ÑĢÐ¸Ð»Ð°": 2350,
      "Ð¾Ð²ÑĭÐ¼": 2351,
      "ĠÐ³ÑĥÐ±Ñĭ": 2352,
      "ÐºÐ¾Ð»ÑĮ": 2353,
      "ĠÐºÐ°Ð¶Ð´ÑĭÐ¹": 2354,
      "ĠÐĴÐ°ÑĢÐ²Ð°ÑĢÐ°": 2355,
      "ÑĢÐ¸Ð¼": 2356,
      "ĠÑĥÐ»ÑĭÐ±ÐºÐ¾Ð¹": 2357,
      "ĠÐ·Ð°ÑģÑĤ": 2358,
      "ÑĥÑĤÑĥÐ·": 2359,
      "ĠÐ¼ÐµÑģÑĤÐµ": 2360,
      "ĠÐĴÐ¿": 2361,
      "ĠÐ¿Ð¾ÑģÑĤÐ°Ð²": 2362,
      "ĠÑģÐ°Ð¼Ð¾Ðµ": 2363,
      "ÑĢÐ¾Ð±": 2364,
      "ĠÐ»Ð¾Ð¶": 2365,
      "ĠÐ¿Ð¾Ð·Ð²Ð¾Ð»": 2366,
      "Ð¾Ð»Ð²": 2367,
      "Ð·ÑĮ": 2368,
      "ĠÐ»ÑİÐ±Ð²Ð¸": 2369,
      "ĠÐ´Ð¾ÑģÐ°Ð´": 2370,
      "ĠÐ¿Ð¾Ð¹Ð´": 2371,
      "Ð°Ð½Ð½Ð¾Ð¹": 2372,
      "ĠÐ´Ð¾Ð¶Ð´": 2373,
      "ĠÐ½Ð°Ð²ÐµÑĢ": 2374,
      "ĠÐ³Ð¾ÑĢÐ´": 2375,
      "ĠÐĽÐµÐ²Ð¸Ð½": 2376,
      "ĠÐ´Ð¾ÐºÑĤÐ¾ÑĢ": 2377,
      "ÑĮÐ¼Ð¸": 2378,
      "ĠÐ´Ð²ÐµÑĢ": 2379,
      "ĠÑħÐ»ÐµÐ±": 2380,
      "Ð¯": 2381,
      "Ð¾Ð»ÑĮÑĤÐµ": 2382,
      "ÐµÐ½Ð½ÑĭÐ¼Ð¸": 2383,
      "ĠÐ²Ð¾Ð»Ð½": 2384,
      "ĠÑģÐ²Ð¾Ð¸Ð¼Ð¸": 2385,
      "ĠÑģÐ»ÑĥÑĩÐ°Ð¹": 2386,
      "ĠÐ°Ð½Ð³": 2387,
      "ÑĪÑĥÑİ": 2388,
      "ĠÑģÐ»ÑĭÑĪÐ°Ð»": 2389,
      "ĠÑĤÐ°ÐºÐ°Ñı": 2390,
      "ĠÐ½ÐµÐ¾Ð±ÑħÐ¾Ð´": 2391,
      "ĠÐ½ÐµÑĢ": 2392,
      "ĠÐŁÐµÑĢ": 2393,
      "ĠÑĤÐ²": 2394,
      "Ð°Ð²ÑĢ": 2395,
      "ĠÐ¿Ð°Ð¼": 2396,
      "ĠÐ°Ðº": 2397,
      "ĠÐĽÐ¸Ð´": 2398,
      "ĠÑĩÐ¸ÑģÑĤ": 2399,
      "Ð°ÑĤÐ°": 2400,
      "ĠÐºÐ¾Ð¼Ð°Ð½Ð´": 2401,
      "ĠÐ¶Ð°ÑĢ": 2402,
      "ĠÐ½ÐµÐ¿Ð¾Ð´": 2403,
      "ĠÐºÐ½ÑıÐ·Ñı": 2404,
      "ÑĢÐµÐº": 2405,
      "ÑĢÑĭÐ»": 2406,
      "Ð°ÐºÑĤ": 2407,
      "ĠÐ²ÑĭÑģÐº": 2408,
      "ĠÐ»ÑİÐ±Ð»Ñİ": 2409,
      "Ð»Ð°Ð·": 2410,
      "ĠÐ´ÐµÐ½": 2411,
      "ĠÐķÐ¼Ñĥ": 2412,
      "ĠÐ³ÑĢÑĥÐ´Ð¸": 2413,
      "ĠÐ²ÑĭÐº": 2414,
      "ĠÐ¤ÐµÐ´Ð¾ÑĢÐ¾Ð²": 2415,
      "ĠÐ¿Ð¾Ð»Ð¾Ð²": 2416,
      "ĠÐ¿ÑĢÐ¸ÑĪ": 2417,
      "Ð°ÑİÑģÑĮ": 2418,
      "ĠÐļÑĥÑĤÑĥÐ·": 2419,
      "ĠÑģÐ»Ð°Ð²": 2420,
      "ĠÐºÑĢÑĭÐ»ÑĮ": 2421,
      "ĠÑģÑĤÑĢÐ°Ð´": 2422,
      "ĠÐ¾ÑĤÑĩÐ°Ñı": 2423,
      "ĠÐ¿Ð¾Ð´Ð¾Ð±": 2424,
      "ÑĥÑħÐ°": 2425,
      "ĠÑĥÑģÐ¼ÐµÑħ": 2426,
      "Ð¾Ð»Ñı": 2427,
      "ĠÑĤÐ°ÐºÐ¸Ñħ": 2428,
      "ĠÐ¿Ð¾ÑģÐ¿ÐµÑĪ": 2429,
      "ÑĭÑģÐº": 2430,
      "ĠÐ¸Ð´ÑĤÐ¸": 2431,
      "ÑĥÐ»Ñı": 2432,
      "ĠÐ¿Ð¾Ð»Ñĥ": 2433,
      "Ðĺ": 2434,
      "ĠÐ¿Ð°Ð»": 2435,
      "ĠÑĥÐ³ÑĢ": 2436,
      "ĠÐ¸ÑģÑĩÐµÐ·": 2437,
      "ĠÐ±Ð¾Ð»ÐµÐ·": 2438,
      "ĠÐ»ÐµÐ³ÐºÐ¾": 2439,
      "ĠÑħÐ»Ð¾Ð¿": 2440,
      "ÑĭÐ³": 2441,
      "ĠÐ²Ð½Ð¸Ð·": 2442,
      "ÑĨÐ¸": 2443,
      "ÑģÑĤÐ²Ð¸Ñı": 2444,
      "ĠÑįÑĤÐ¾Ð¼Ñĥ": 2445,
      "ĠÐ·Ð°ÑĤÐµÐ¼": 2446,
      "ĠÑıÑģÐ½Ð¾": 2447,
      "ĠÐ¾ÑĤÐ²Ð¾ÑĢ": 2448,
      "ĠÑĪÐ»ÑıÐ¿": 2449,
      "ĠÑĤÑĥÐ´Ð°": 2450,
      "ĠÐ¾Ð±Ð¾": 2451,
      "ĠÑģÐ°Ð¼Ð¾Ð¹": 2452,
      "ĠÑģÑĭÐ½": 2453,
      "ĠÐ´ÑĢÑĥÐ³Ð¾": 2454,
      "ÑıÑĤÑģÑı": 2455,
      "Ð¸ÑĨÐ°": 2456,
      "ÑĢÐ¸Ñı": 2457,
      "ĠÐ´ÑĥÐ¼Ð°ÑĤÑĮ": 2458,
      "Ð¾ÑıÑĤÐ½Ð¾": 2459,
      "ĠÐ²ÑħÐ¾Ð´": 2460,
      "Ð½Ð¸ÐºÐ¾Ð¼": 2461,
      "Ð°Ð¼ÐµÐ½": 2462,
      "Ð°Ð²ÑĪÐ¸Ðµ": 2463,
      "ĠÐ±Ð¾Ðº": 2464,
      "ĠÐ¿Ð¾ÑĤÐµÑĢ": 2465,
      "ĠÐĿÐ°ÑĤÐ°ÑĪÐ°": 2466,
      "ĠÐ±Ð»Ð°Ð³Ð¾Ð´Ð°ÑĢ": 2467,
      "ÑİÑĪÐºÐ°": 2468,
      "ĠÐłÐ¾ÑģÑģ": 2469,
      "ĠÑģÑĢÐµÐ´Ð¸": 2470,
      "Ð¸Ð²Ð°Ð»ÑģÑı": 2471,
      "ĠÐ·Ð°Ð³Ð¾Ð²Ð¾ÑĢÐ¸Ð»": 2472,
      "ÑĢÐµÐ´ÐµÐ»": 2473,
      "ĠÐ·ÐµÐ»ÐµÐ½": 2474,
      "ĠÐ¾ÑĤÑĬ": 2475,
      "Ð°Ð²ÑĪÐ¸Ñħ": 2476,
      "ĠÐ»ÐµÑģÑĤ": 2477,
      "ĠÐ¼ÐµÑģÑĤÐ°": 2478,
      "ÑīÐ¸Ðº": 2479,
      "ĠÑĢÐ°Ð·Ð²Ðµ": 2480,
      "ĠÐºÐ°Ð±Ð¸Ð½": 2481,
      "ĠÐ²ÑĩÐµÑĢÐ°": 2482,
      "Ð²Ð¸Ð´": 2483,
      "ĠÐ¿ÑĢÐ¸ÑĪÐµÐ»": 2484,
      "ĠÐĿÐ°Ðº": 2485,
      "ĠÐļÑĢ": 2486,
      "ĠÐ¾ÑģÑĤÐ¾ÑĢ": 2487,
      "ĠÑģÐ´ÐµÐ»Ð°Ð»": 2488,
      "ĠÐŀÑĢÑĤÑĢ": 2489,
      "Ð°ÑĢÑı": 2490,
      "ĠÐ¿ÑĢÐ¸Ð¿": 2491,
      "ĠÐºÐ°ÑĢÑĤ": 2492,
      "ĠÑģÑĤÑĢÐ°Ð½Ð½Ð¾": 2493,
      "ĠÑĤÐ¾Ð±Ð¾Ð¹": 2494,
      "ĠÐ¶Ð¸Ð»": 2495,
      "ĠÑĤÐµÐ¼Ð½Ð¾": 2496,
      "ĠÐ·Ð²Ð¾Ð½": 2497,
      "ÑĭÑģÐ»": 2498,
      "ĠÐ²Ð¾ÑģÑĤÐ¾ÑĢ": 2499,
      "ĠÐĲÐ»ÐµÐºÑģÐµ": 2500,
      "ĠÐŁÐ¾Ð¼": 2501,
      "ĠÑĤÐ°ÐºÐ¾Ð³Ð¾": 2502,
      "ĠÐ´ÑĢÑĥÐ³Ð¸Ðµ": 2503,
      "ĠÑĤÐ°Ð¹": 2504,
      "ĠÑħÐ¾ÑĩÐµÑĤ": 2505,
      "ĠÑģÐ¼ÐµÑĢÑĤÐ¸": 2506,
      "ĠÐ¿Ð¾Ð´Ð¿": 2507,
      "ĠÐŁÐµÑĢÐµÐ´Ð¾Ð½Ð¾Ð²": 2508,
      "ĠÐĶÐ°Ð²ÑĭÐ´Ð¾Ð²": 2509,
      "ĠÑĢÐ¾ÑĤ": 2510,
      "Ð¼ÑĥÑĢ": 2511,
      "ĠÐ¿Ð¾ÑģÐ¼Ð¾ÑĤÑĢÐµÐ»": 2512,
      "ĠÐ»Ð¾Ð²": 2513,
      "ĠÐ¶ÐµÐ½Ð¸": 2514,
      "ĠÐ½ÐµÐ¿ÑĢÐ¸ÑıÑĤ": 2515,
      "ĠÑĤÐ¾Ð¿": 2516,
      "ĠÐ¾Ð±Ð¸Ð´": 2517,
      "Ð¾Ð»Ñİ": 2518,
      "ĠÑĩÐµÐ»Ð¾Ð²ÐµÑĩ": 2519,
      "ĠÐ¿Ð¾Ð·Ð²": 2520,
      "ĠÐ¼Ð½Ð¾Ñİ": 2521,
      "ĠÐļÐ½ÑıÐ·ÑĮ": 2522,
      "ĠÑģÐ»ÑĥÑĩÐ°Ðµ": 2523,
      "ĠÐ²ÑģÐµÐ¹": 2524,
      "ĠÑģÐ¾ÑģÐµÐ´": 2525,
      "ĠÐ½ÐµÑģÐ¼Ð¾ÑĤÑĢÑı": 2526,
      "ĠÐ¿ÑĢÐ¾Ð¸Ñģ": 2527,
      "ĠÑĩÐ°ÑģÐ¾Ð²": 2528,
      "ĠÐ¾ÐºÑĢÑĥÐ¶": 2529,
      "ĠÑģÐ¶": 2530,
      "ĠÑĥÐ¼ÐµÑĢ": 2531,
      "ĠÐ¿ÑĢÐ¸Ð¶": 2532,
      "ĠÐ³ÑĢÑıÐ·": 2533,
      "ĠÐĵÑĢÐ°ÑĦ": 2534,
      "Ð»Ð°ÑĤ": 2535,
      "ĠÐ¾ÑĤÑģ": 2536,
      "ĠÐłÐ¾ÑģÑĤÐ¾Ð²": 2537,
      "ĠÑģÐ¿Ð°Ñģ": 2538,
      "ĠÑģÑĤÐ¾Ð¸ÑĤ": 2539,
      "Ð§": 2540,
      "ĠÐ²Ð¾ÐºÑĢÑĥÐ³": 2541,
      "ÑĢÐ¸ÑģÑĤ": 2542,
      "ĠÐ³ÑĢÑĥÐ±": 2543,
      "ĠÑĩÐµÑĢÑĤ": 2544,
      "ĠÐ±Ð¾Ð³Ð°ÑĤ": 2545,
      "ĠÐ´Ð¾Ð½": 2546,
      "Ð½Ð¸Ð²": 2547,
      "ĠÑģÑĤÑĭÐ´": 2548,
      "ĠÐ°Ð´": 2549,
      "ĠÐ»Ð¸Ñĩ": 2550,
      "ĠÐ·ÐµÐ¼Ð»Ñİ": 2551,
      "ÑĢÐ°Ð²Ð»Ñı": 2552,
      "ÑĨÐ¸Ñı": 2553,
      "Ð¾Ð·Ð´": 2554,
      "ÐµÐ´Ð¸Ð½": 2555,
      "ĠÐ±Ð¾Ð»ÑĮÑĪÐ¾Ð¹": 2556,
      "ĠÑģÐ¾ÑģÑĤÐ¾Ñı": 2557,
      "ĠÐ²ÐµÐ´": 2558,
      "Ð°Ð»ÑĬ": 2559,
      "ĠÐ³ÑĢÐ°": 2560,
      "ĠÐ²Ð¾Ð¾Ð±ÑīÐµ": 2561,
      "ĠÑħÑĥÑĤÐ¾ÑĢ": 2562,
      "ÑģÐ¾Ð²": 2563,
      "ÑĢÐ°ÑģÑĤ": 2564,
      "ĠÑģÐ¿Ð¾ÐºÐ¾Ð¹Ð½Ð¾": 2565,
      "ĠÐĿÐ¸ÐºÐ¾Ð»Ð°": 2566,
      "ĠÐ³ÑĢÐ¾Ð¼ÐºÐ¾": 2567,
      "ĠÐºÐ°ÐºÑĬ": 2568,
      "ÑĥÑİÑĤ": 2569,
      "ĠÐ±ÑĢÐ¾Ð²": 2570,
      "ĠÐ»ÑİÐ±Ð¾Ð²ÑĮ": 2571,
      "ÑģÐºÐ¾Ð¼Ñĥ": 2572,
      "ĠÐŁÐµÑĤÑĢÐ¾Ð²Ð¸Ñĩ": 2573,
      "ĠÐ´Ð¾Ð¿": 2574,
      "ĠÐ¿Ð°Ð´": 2575,
      "Ð²ÑĭÑĩÐ°Ð¹": 2576,
      "ĠÐ¿Ð¾Ð½ÑıÑĤÑĮ": 2577,
      "ĠÐĲÑĢÐº": 2578,
      "Ð½ÐµÐ·": 2579,
      "ĠÐ¾Ð²": 2580,
      "Ð»ÐµÐ½Ð¸ÐµÐ¼": 2581,
      "ÑĨÐµÐ½": 2582,
      "Ð·Ð´": 2583,
      "ĠÑĥÐ²Ð¸Ð´ÐµÐ»": 2584,
      "ĠÐĲÐ»ÐµÐºÑģÐµÐ¹": 2585,
      "ĠÐ±ÑĥÑĢ": 2586,
      "ĠÑģÐ»ÐµÐ·Ñĭ": 2587,
      "ĠÐ¿Ð¾ÑĩÑĤ": 2588,
      "ĠÐ¿Ð¾ÑģÑĤÐ¾": 2589,
      "ĠÐ³Ð°Ð·": 2590,
      "ĠÐ²ÑĭÐ¹": 2591,
      "ĠÑģÑĤÑĥÐ¿": 2592,
      "ĠÑģÐ²ÐµÑĤÐµ": 2593,
      "ĠÐ¿Ð»Ð°Ðº": 2594,
      "ĠÐ¡ÑĤÐµÐ¿Ð°Ð½": 2595,
      "ĠÐ²Ð¸Ð¶Ñĥ": 2596,
      "Ð²Ð¸Ð½": 2597,
      "ĠÐºÐ°Ñĩ": 2598,
      "ĠÐ¿Ð¾ÐºÐ»Ð¾Ð½": 2599,
      "ĠÑĩÐµÐ¼Ñĥ": 2600,
      "ĠÐºÐ¾ÑģÑĤ": 2601,
      "ĠÐ½ÐµÑģÑĩÐ°ÑģÑĤ": 2602,
      "ĠÐ³Ð¾ÑģÐ¿Ð¾Ð´Ð¸Ð½": 2603,
      "Ð¼ÐµÑĪ": 2604,
      "ĠÐºÑĢÐ°ÑģÐ¸Ð²": 2605,
      "ĠÐ¿Ð¾Ð´Ð±": 2606,
      "ĠÐ¿ÑĢÐ¸ÑģÑĤ": 2607,
      "ÐµÐ½ÑĮÐµ": 2608,
      "ĠÐ¿ÑĢÐ¾ÑħÐ¾Ð´": 2609,
      "ĠÑĩÐµÑĤÐ²ÐµÑĢ": 2610,
      "ÐºÐ°Ð¼": 2611,
      "ĠÑĢÑĥÑĩ": 2612,
      "ĠÑģÐ²Ð¾ÐµÐ¼Ñĥ": 2613,
      "ĠÐ¿Ð¾Ð½ÑıÐ»": 2614,
      "ĠÑĩÑĢÐµÐ·Ð²ÑĭÑĩÐ°Ð¹": 2615,
      "ÑĤÐ°Ðº": 2616,
      "Ð´Ð¸": 2617,
      "Ð¸ÑĩÐµÑģÐºÐ¸": 2618,
      "ĠÐ±ÑĥÐ´ÑĥÑĤ": 2619,
      "Ð¸ÑĦ": 2620,
      "ĠÐ´ÑĥÑĪÐµ": 2621,
      "ĠÑĢÐµÐº": 2622,
      "ĠÐľÐ¾Ð¶ÐµÑĤ": 2623,
      "ĠÑģÐ¾Ð¿": 2624,
      "ĠÑĤÐ¾Ñĩ": 2625,
      "ĠÑģÐ¿Ð¾ÑģÐ¾Ð±": 2626,
      "Ð¾ÑĢÐ¾ÑĪÐ¾": 2627,
      "Ð°ÑĩÐµÐ¼": 2628,
      "ĠÐ¾ÑģÑĤÐ°Ð½": 2629,
      "ĠÐ¾Ð±ÑĬÑıÐ²": 2630,
      "ĠÐ½Ð°ÑĩÐ°Ð»Ð°": 2631,
      "ÐµÐµÑĤÑģÑı": 2632,
      "ĠÐ¶ÐµÐ½Ð°": 2633,
      "ĠÐ´Ð°Ð»ÑĮÑĪÐµ": 2634,
      "ĠÐľÐ¸ÑħÐ°Ð¹Ð»Ð¾Ð²": 2635,
      "ÑĢÐµÑĪ": 2636,
      "ÑıÐ»Ð¾": 2637,
      "ĠÐĴÐ°ÑģÐ¸Ð»ÑĮ": 2638,
      "ĠÐŀÑĩ": 2639,
      "ĠÑģÐ½ÐµÐ³": 2640,
      "ĠÑģÐºÐ°Ð¶Ñĥ": 2641,
      "ÑĢÐ°Ð±": 2642,
      "ĠÐ¿Ð¾ÐºÐ¾Ð¹": 2643,
      "Ð¼Ð¾ÑĤÐ°Ð»": 2644,
      "ĠÐĵÑĢÐ¸Ð³Ð¾": 2645,
      "ĠÑħÐ¾ÑĤÐµÐ»Ð°": 2646,
      "ĠÐ¿ÑĢÐ¾Ð¸Ð·Ð½ÐµÑģ": 2647,
      "Ð°Ð²ÑĪÐ¸ÑģÑĮ": 2648,
      "ĠÑģÑĤÐ¾Ð»ÑĮ": 2649,
      "ĠÑģÑĭÐ½Ð°": 2650,
      "ĠÐ±ÑĭÑģÑĤÑĢ": 2651,
      "ĠÑģÐ¼ÑĥÑĤ": 2652,
      "ĠÐĽÐ¾Ð³": 2653,
      "ĠÑĪÐ°ÑĢ": 2654,
      "Ð°Ð¶Ð´Ñĭ": 2655,
      "ÑĮÑĤÐµ": 2656,
      "ĠÐ·Ð¾Ð»Ð¾ÑĤ": 2657,
      "ĠÐ¾Ð±Ðµ": 2658,
      "ĠÐ¾Ð±ÑĢÐ°Ð·Ð¾Ð¼": 2659,
      "ĠÐ²Ð¾Ð»Ð¾ÑģÑĭ": 2660,
      "Ð½ÐµÐ»": 2661,
      "ÑĩÐµÑģÐº": 2662,
      "ĠÐ©": 2663,
      "Ð½Ð¸ÐµÐ¼": 2664,
      "ĠÐ½ÐµÐ²Ð¾Ð·Ð¼": 2665,
      "ĠÑģÐ¼ÑĥÑī": 2666,
      "ĠÐ½Ð°ÑĩÐ¸Ð½": 2667,
      "ĠÐ½Ð°ÑĩÐ°Ð»ÑĮ": 2668,
      "Ð°Ð²ÑĪÐµÐ³Ð¾": 2669,
      "Ð°Ð½Ð½Ð¾Ðµ": 2670,
      "ĠÐ¼Ð¾Ð³Ð»Ð¸": 2671,
      "ĠÑĤÑıÐ¶ÐµÐ»Ð¾": 2672,
      "ĠÐŁÐ¾ÑģÐ»Ðµ": 2673,
      "ĠÐ½Ð°ÑģÐ»": 2674,
      "ĠÐŁÑĢÐ°Ð²": 2675,
      "ÐµÐ¿ÐµÑĤ": 2676,
      "ĠÐ´ÑĢÑĥÐ³Ð¾Ðµ": 2677,
      "ĠÐ¾Ð±ÑıÐ·": 2678,
      "ĠÑģÐ¾Ð±ÑģÑĤÐ²ÐµÐ½": 2679,
      "ĠÑĥÐ²Ð°Ð¶": 2680,
      "ĠÐ´Ð°Ð»ÐµÐºÐ¾": 2681,
      "ĠÑĥÐ³Ð¾Ð»": 2682,
      "Ð½ÐµÐ·Ð°Ð¿": 2683,
      "ÑĢÐ°Ð»": 2684,
      "Ð¾ÑĩÐºÐ¸": 2685,
      "ĠÐ³Ð¾Ð»Ð¾Ð²Ñĭ": 2686,
      "Ð¾Ð»Ðº": 2687,
      "ĠÐºÐ°ÐºÑĥÑİ": 2688,
      "ĠÐ·Ð°Ð¶": 2689,
      "ĠÑģÐ»Ð°Ð´": 2690,
      "ĠÐ¿ÑĢÐµ": 2691,
      "ĠÑĢÐ¾Ð¼": 2692,
      "ĠÐ½Ð°Ñħ": 2693,
      "ĠÑģÑĤÑĥÐ»": 2694,
      "ĠÐĵÐ´Ðµ": 2695,
      "ĠÐ£Ð¶": 2696,
      "ĠÐ²Ð¾Ð·Ð¼Ð¾Ð¶": 2697,
      "ĠÐĿÐµÑħÐ»ÑİÐ´Ð¾Ð²": 2698,
      "ĠÐ±ÐµÐ¶": 2699,
      "ĠÑĢÐ°Ð½": 2700,
      "ĠÐ²ÐµÐ»Ð¸Ñĩ": 2701,
      "Ð»Ð¸Ð·": 2702,
      "Ð¾Ð½Ðµ": 2703,
      "Ð¾Ð¶Ñĥ": 2704,
      "ĠÑģÑĤÐ¾Ð»Ð°": 2705,
      "ĠÐ²ÐµÑģÑĮÐ¼Ð°": 2706,
      "ĠÐĿÐ¸Ñĩ": 2707,
      "ĠÑģÑĤÐ¸Ñħ": 2708,
      "ÑĥÐ¼Ñı": 2709,
      "ĠÐ¾Ð´Ð½Ð¸Ð¼": 2710,
      "ÑĥÐ½Ð´": 2711,
      "ĠÐ±ÐµÑģÐ¿Ð¾ÐºÐ¾Ð¹": 2712,
      "ĠÐ²Ð¾ÑģÐºÐ»Ð¸ÐºÐ½ÑĥÐ»": 2713,
      "Ð»Ð°Ðº": 2714,
      "Ð°Ð½Ñı": 2715,
      "ĠÐ¿Ð¾Ð»ÐºÐ¾Ð²": 2716,
      "ĠÑĤÑı": 2717,
      "ĠÐ¿Ð¾Ñį": 2718,
      "ĠÐ¾ÑĩÐµÐ²": 2719,
      "ĠÐ¼ÑĥÐ¶Ñĩ": 2720,
      "ĠÐ¿Ð¾ÐºÐ°Ð·ÑĭÐ²": 2721,
      "ĠÐ²Ð¿ÐµÑĩÐ°ÑĤ": 2722,
      "ĠÑĢÐ°Ð±Ð¾Ñĩ": 2723,
      "Ð»ÑĭÐ¹": 2724,
      "ĠÑģÐ°Ð¼ÑĭÐ¹": 2725,
      "ĠÑħÐ¾ÑĤÐ¸ÑĤÐµ": 2726,
      "ĠÐĿÐ°ÑĤÐ°Ð»ÑĮ": 2727,
      "ĠÑĩÐ°Ð¹": 2728,
      "Ð¾Ð½Ñĥ": 2729,
      "ĠÐ¿Ð¾Ð´Ð´": 2730,
      "ĠÐ¼ÑĥÐ·": 2731,
      "ĠÐ¸Ð·Ð´": 2732,
      "Ð²ÐµÐ´": 2733,
      "ĠÐŁÐµÑĤÐµÑĢÐ±ÑĥÑĢÐ³": 2734,
      "ĠÐ¾ÑĤÐºÐ°Ð·": 2735,
      "ĠÐ¸Ð´ÐµÑĤ": 2736,
      "ĠÐ¾Ð¶Ð¸Ð²": 2737,
      "ĠÐĿÐ°ÑģÑĤÐ°ÑģÑĮ": 2738,
      "ĠÑģÐ°Ð¿": 2739,
      "ÐºÐ°Ðº": 2740,
      "ĠÐ¼Ð¸Ð³": 2741,
      "Ð¸Ð»Ð¾Ð²": 2742,
      "ĠÐ½Ð¾Ð¶": 2743,
      "ÑĩÐ°ÑĤ": 2744,
      "ĠÑģÐ»Ð¾Ð¶": 2745,
      "ĠÐ¿Ð¾ÐºÐ°Ð·Ð°Ð»Ð¾ÑģÑĮ": 2746,
      "ÑĥÐ¶ÐµÐ»Ð¸": 2747,
      "ĠÐ»ÑİÐ±Ð¸ÑĤ": 2748,
      "Ð»ÐµÐ½Ð½ÑĭÐ¹": 2749,
      "Ð¾Ð»ÑĮÐ½Ð¾": 2750,
      "ĠÐ¿ÐµÑĢÐµÐº": 2751,
      "ĠÐ³Ð¾Ð²Ð¾ÑĢÑı": 2752,
      "ĠÐ½Ð°ÐºÐ»Ð¾Ð½": 2753,
      "ĠÐĶÐ°ÑĢ": 2754,
      "ĠÑģÑĤÑĢÐ¾Ð³Ð¾": 2755,
      "Ð²ÐµÑĢÑħ": 2756,
      "ĠÐºÐ½ÑıÐ¶": 2757,
      "ĠÐ²ÑģÑĤÐ°Ð²": 2758,
      "ĠÐºÐ°ÐºÐ¾Ð³Ð¾": 2759,
      "ĠÐ¶ÐµÐ½ÑīÐ¸Ð½Ñĭ": 2760,
      "ĠÑħÐ°ÑĢ": 2761,
      "ĠÐ¾Ð´Ð½Ð¾Ð¼": 2762,
      "Ð¾Ð»ÐµÑĤ": 2763,
      "ĠÐ¿ÑĢÐ°Ð²Ð¾": 2764,
      "Ð´ÐµÑĤ": 2765,
      "Ð°Ð½Ð½Ð°Ñı": 2766,
      "ĠÐ²ÑģÐ»ÐµÐ´": 2767,
      "ĠÐ´Ð¾Ð»Ð¶Ð½Ñĭ": 2768,
      "ĠÐºÑĢÑĥÐ¶": 2769,
      "ĠÑģÐ¿ÑĢÐ°Ð²": 2770,
      "ĠÐ±ÐµÑĢÐµÐ³": 2771,
      "ĠÐ½Ð°Ð¼ÐµÑĢ": 2772,
      "ĠÐ²Ð¾Ð·Ð±": 2773,
      "ÑİÐ¼": 2774,
      "ĠÐ½Ð°ÑĪÐ¸": 2775,
      "Ð¾Ð²Ð°Ð½Ð¸Ñı": 2776,
      "ĠÐ³ÑĢÑĥÑģÑĤ": 2777,
      "ĠÑģÑĤÐ¾ÑıÐ»Ð°": 2778,
      "ĠÑģÑĤÑĢÐ°ÑĪÐ½Ð¾": 2779,
      "Ð¾Ð´Ð½Ð¾": 2780,
      "ĠÐ¿Ð¾Ð´ÑĬ": 2781,
      "ĠÐ³Ð¾Ð»Ð¾Ð²Ð°": 2782,
      "ĠÐ·Ð°ÐºÐ»ÑİÑĩ": 2783,
      "ÐµÑĢÑĥ": 2784,
      "Ð¾ÑĢÐµ": 2785,
      "ĠÑģÐ»ÐµÐ³": 2786,
      "ĠÐķÑīÐµ": 2787,
      "ĠÐ¸Ð¼ÐµÐ»": 2788,
      "ĠÑģÐ¸Ð»ÑĮÐ½Ð¾": 2789,
      "ĠÐĶÑĥ": 2790,
      "ĠÐ¼Ð¸Ð½ÑĥÑĤÑĭ": 2791,
      "Ð¿Ð¾Ð¼Ð¸Ð½Ð°": 2792,
      "ĠÐ´ÑĥÐ¼Ð°Ð»Ð°": 2793,
      "Ð»Ð¾ÑģÑĮ": 2794,
      "Ð³Ð¾ÑĤÐ¾Ð²": 2795,
      "ÑĥÑĪÐºÑĥ": 2796,
      "ĠÐĵÐ¾Ð²Ð¾ÑĢ": 2797,
      "ĠÐ¿Ð¾Ð³Ð»ÑıÐ´": 2798,
      "ĠÐ¿Ð¾ÑĩÑĥÐ²ÑģÑĤÐ²Ð¾Ð²Ð°Ð»": 2799,
      "ĠÑģÑĩÐ°ÑģÑĤÑĮ": 2800,
      "Ð¿Ð¿": 2801,
      "ÑģÑıÑĤ": 2802,
      "ĠÐ¾Ð±Ð°": 2803,
      "ĠÐ½ÐµÐ¾Ð±ÑĭÐºÐ½Ð¾Ð²": 2804,
      "ĠÐľÐ¸ÑħÐ°": 2805,
      "ĠÐ»Ð°Ð´Ð¾Ð½": 2806,
      "Ð¾Ð»Ð¾Ð¶": 2807,
      "ĠÐ½ÐµÑĩÐµÐ³Ð¾": 2808,
      "ÑĪÐºÐ°": 2809,
      "ĠÐ¸Ð·Ð¼ÐµÐ½": 2810,
      "ÐµÐ½Ð½Ð¾Ð¼": 2811,
      "ÑİÑģÑĮ": 2812,
      "ĠÐµÑħÐ°ÑĤÑĮ": 2813,
      "ÑĤÐ°Ð»": 2814,
      "ĠÑĪÐº": 2815,
      "ĠÐ·Ð°ÑģÐ¼Ðµ": 2816,
      "ĠÐ²ÐµÑĢÐ½Ð¾": 2817,
      "Ð¾ÐºÐ¾ÑĦ": 2818,
      "ĠÑĥÐ¶Ð°ÑģÐ½Ð¾": 2819,
      "ĠÐ¿Ð¾Ð´Ð¾Ð·": 2820,
      "ĠÐ½ÐµÐ¿ÑĢ": 2821,
      "ĠÑĥÑģÐ¿Ð¾ÐºÐ¾": 2822,
      "ĠÑĥÑģÐ»ÑĭÑĪ": 2823,
      "ÑĥÐ¹ÑĤÐµ": 2824,
      "Ð¾ÑĤÑĥ": 2825,
      "ĠÐŁÑĢÐ¾ÐºÐ¾ÑĦ": 2826,
      "ĠÐ½Ð°ÑģÑĤÐ¾ÑıÑī": 2827,
      "ĠÐ¾ÑĪÐ¸Ð±": 2828,
      "ĠÐ¢Ð°Ð¼": 2829,
      "ÑĢÑıÐ¶": 2830,
      "ĠÐ¿ÑĢÐ¸ÐµÑħ": 2831,
      "ĠÐ¿Ð»Ð°ÑĤÑĮÐµ": 2832,
      "ĠÐĿÐ°ÐºÐ¾Ð½ÐµÑĨ": 2833,
      "Ð»ÐµÐ²": 2834,
      "ĠÐ´Ð¸Ðº": 2835,
      "Ð½Ð°ÑĩÐµ": 2836,
      "Ð½Ð°Ð»": 2837,
      "ĠÐ´ÐµÐ´": 2838,
      "ĠÐ¿ÑĢÐµÐ»": 2839,
      "ĠÐ¿Ð»Ð¾Ñħ": 2840,
      "Ð¾Ð¹ÑĤÐ¸": 2841,
      "Ð¾ÑĢÐ¾Ð½": 2842,
      "Ð¼Ð¸ÑĢ": 2843,
      "ÑİÑĤÑģÑı": 2844,
      "ĠÐ³ÑĥÑģ": 2845,
      "ÑģÑĤÑĢÐµÐ»": 2846,
      "ĠÐ´Ð¾Ð»Ð³": 2847,
      "ĠÐ½ÐµÐ½Ð°Ð²": 2848,
      "ĠÐ²Ð¸Ð½": 2849,
      "ĠÐĲÐºÑģ": 2850,
      "ĠÐ²ÑĭÑĪÐ»Ð°": 2851,
      "ÐµÑĤÑĥ": 2852,
      "ĠÐ´ÑĢÑĥÐ³Ð¾Ð³Ð¾": 2853,
      "ĠÐ¿ÑĢÐ¸Ð±Ð°Ð²Ð¸Ð»": 2854,
      "ĠÑĥÐ¹": 2855,
      "ÑģÐºÐ¾ÑĢÐ±": 2856,
      "ÑĭÐ»Ð°": 2857,
      "ĠÐ¿ÑĢÐ¾ÑĦ": 2858,
      "ĠÑĥÐ´ÐµÑĢÐ¶": 2859,
      "ĠÑģÑĥÐ´ÑĮ": 2860,
      "ĠÐ²Ð½ÐµÐ·Ð°Ð¿": 2861,
      "ÐµÑĢÐ½Ð°": 2862,
      "Ð¾ÑĩÐºÑĥ": 2863,
      "ĠÐ°ÑĢÐ¼Ð¸": 2864,
      "ĠÐ¼Ð°ÑĢ": 2865,
      "ĠÑģÐ¾ÑģÑĤÐ°Ð²": 2866,
      "ĠÑĥÐ»ÑĭÐ±Ð½ÑĥÐ»ÑģÑı": 2867,
      "Ðĳ": 2868,
      "Ð°ÑİÑīÐ¸Ð¹": 2869,
      "ĠÐ·Ð°Ð¿Ð°Ñħ": 2870,
      "ĠÐ¿ÐµÑĢÐµÐ¿": 2871,
      "ĠÑĤÑĢÑĥÐ±": 2872,
      "ĠÐ¼Ð¾Ð¸Ñħ": 2873,
      "ĠÐ·Ð½Ð°Ð»Ð°": 2874,
      "Ð½Ð¾Ð³": 2875,
      "ĠÐ¿ÑĭÑĤ": 2876,
      "ĠÐºÑĥÑħ": 2877,
      "ĠÑģÑĤÑĢÐµÐ¼": 2878,
      "ĠÑĤÑĢÐ°Ð²": 2879,
      "ĠÐ¼Ð¾Ð»ÑĩÐ°Ð»": 2880,
      "Ð¾Ð»ÐµÐ²": 2881,
      "Ð¾ÑĢÐ²": 2882,
      "ĠÐ´ÑĥÑĪÐ¸": 2883,
      "ÑĢÐ¸Ð¹": 2884,
      "ĠÐ³Ð¾Ð»Ð¾Ð²Ðµ": 2885,
      "ĠÐ½ÐµÐ±Ð¾Ð»ÑĮ": 2886,
      "ĠÐ¼ÐµÑĢÑĤÐ²": 2887,
      "ÑĥÐ¶Ðµ": 2888,
      "ĠÐ²Ð·Ð´ÑĢ": 2889,
      "ĠÐ±Ð°ÑĢÑĭÑĪ": 2890,
      "ĠÐ¼ÐµÑĢÐµ": 2891,
      "ĠÐĲÐ»ÐµÑĪÐ°": 2892,
      "ĠÑĤÑĢÐµÑħ": 2893,
      "Ð»Ð°Ð¶": 2894,
      "ĠÐ¼ÐµÑĤ": 2895,
      "ĠÐ¿Ð¾Ð´ÑħÐ¾Ð´": 2896,
      "ĠÐ½ÐµÐ¿Ð¾Ð´Ð²Ð¸Ð¶": 2897,
      "ĠÐļÐ¸ÑĢ": 2898,
      "ÐµÐ½ÑĮÐºÐ¸Ð¹": 2899,
      "ĠÑĥÐ·Ð½Ð°Ð»": 2900,
      "ĠÐ¿ÑĢÐ¸ÐµÑħÐ°Ð»": 2901,
      "ĠÑģÐ¿ÐµÑĪ": 2902,
      "Ð¾Ð²Ð°Ð»ÑģÑı": 2903,
      "Ð¾ÑĪÐ»Ð¸": 2904,
      "ĠÐĲÐ½Ð´ÑĢÐµ": 2905,
      "ĠÐ¾Ð±ÐµÑī": 2906,
      "ÐµÐ»ÑģÑı": 2907,
      "Ð°Ð½Ð½ÑĭÑħ": 2908,
      "ĠÐ³Ð¾ÑģÑĤÐ¸": 2909,
      "ĠÐ²Ð¾Ð·Ð²ÑĢÐ°Ñī": 2910,
      "ĠÐ§ÐµÑĢÐµÐ·": 2911,
      "ĠÑĦÐ¾ÑĢ": 2912,
      "ĠÐ¿Ð»Ð¾ÑĤ": 2913,
      "ĠÐ½Ð°Ð¿Ð¾Ð¼": 2914,
      "Ð½Ð¾Ð´ÑĥÑĪ": 2915,
      "Ð°Ð½Ð½ÑĭÐ¼": 2916,
      "ĠÐ¸ÑģÐºÑĢ": 2917,
      "ĠÑģÐ»ÐµÐ³ÐºÐ°": 2918,
      "ÐºÐ¾Ð²Ð°": 2919,
      "ĠÑģÑĤÐ¾ÑıÐ»Ð¸": 2920,
      "ĠÐ½ÐµÑĥÐ´": 2921,
      "Ð¸ÑĢÐ°Ñı": 2922,
      "ĠÑĤÐ¾ÑĢÐ¶Ðµ": 2923,
      "Ð¾ÑĩÐ¸Ð»": 2924,
      "ĠÐ»Ð¾ÑĪÐ°Ð´ÐµÐ¹": 2925,
      "Ð½ÑĥÐ»Ð¸ÑģÑĮ": 2926,
      "ĠÐ³ÐµÑĢ": 2927,
      "Ð¾Ð²Ð°Ð»Ð¾": 2928,
      "ĠÐ¼Ð°ÑĪ": 2929,
      "ĠÐ½ÐµÐ¿ÑĢÐµÐ¼ÐµÐ½Ð½Ð¾": 2930,
      "ĠÐ½Ð¾ÑĩÐ¸": 2931,
      "ĠÐĳÐ¾ÑĢÐ¸Ñģ": 2932,
      "ĠÐ´Ð²Ð°Ð´ÑĨÐ°ÑĤÑĮ": 2933,
      "ĠÐ³Ð¾Ð»Ð¾ÑģÐ°": 2934,
      "ĠÐĿÐ°Ð´Ð¾": 2935,
      "ĠÐĿÐ¸ÑĩÐµÐ³Ð¾": 2936,
      "ĠÐĲÐºÑģÐ¸Ð½": 2937,
      "ĠÐ§ÐµÐ³Ð¾": 2938,
      "ĠÐ¿ÑĢÐ¸Ð½ÐµÑģ": 2939,
      "Ð¸Ð½Ð¾": 2940,
      "ĠÐ½Ð°ÑĪÐµÐ³Ð¾": 2941,
      "ĠÑģÑħÐ¾Ð´": 2942,
      "ĠÐºÐ¾Ð·": 2943,
      "ĠÑĥÑĪÐµÐ»": 2944,
      "ÐµÐ´Ñĥ": 2945,
      "ĠÐ¿Ð¾Ð¼Ð¾Ñī": 2946,
      "ÐºÐ½ÑĥÐ»Ð°": 2947,
      "ĠÐ»ÑİÐ±Ð¸Ð»": 2948,
      "Ð½Ð°ÑĩÐ°Ð»Ð°": 2949,
      "ĠÐŁÑĢÐ¾ÐºÐ¾ÑĦÑĮ": 2950,
      "ĠÐ¼Ð°Ñħ": 2951,
      "ĠÐ¸Ð·ÑĥÐ¼": 2952,
      "ĠÑĦÐ¸Ð³ÑĥÑĢ": 2953,
      "ĠÐºÑĬ": 2954,
      "ĠÐ¢ÑĥÑĢ": 2955,
      "ĠÐ²Ð¸Ð´Ð¸Ð¼Ð¾": 2956,
      "ĠÐ´ÐµÑģÑıÑĤÑĮ": 2957,
      "ĠÑĥÐºÐ°Ð·": 2958,
      "ĠÐ³Ð¾ÑģÐ¿Ð¾Ð´Ð°": 2959,
      "ĠÑģÐ²ÐµÐ¶": 2960,
      "Ð¾ÑĢÐ¾Ð¼": 2961,
      "ĠÐĴÐ°Ð»": 2962,
      "ĠÐ¾ÐºÐ½Ð¾": 2963,
      "Ð¾Ð³Ð¸": 2964,
      "ĠÐ±Ð»Ð°Ð³Ð¾ÑĢÐ¾Ð´": 2965,
      "ĠÐ´Ð¾Ð³Ð°Ð´": 2966,
      "ĠÐ½Ð°ÑģÑĤ": 2967,
      "ĠÐĴÐ°Ð½": 2968,
      "ĠÐ½Ð°ÑģÐ¼ÐµÑĪ": 2969,
      "Ð°Ð²Ð»Ð¸Ð²": 2970,
      "ĠÐĺÐ»ÑĮ": 2971,
      "ĠÐĴÐ¸Ð´": 2972,
      "ĠÐ·Ð°Ñī": 2973,
      "ĠÐ¿ÑĢÐ¾ÑĤÑı": 2974,
      "ĠÑģÑĤÐ°Ð½Ð¸": 2975,
      "ĠÑħÐ¾ÑĩÐµÑĪÑĮ": 2976,
      "Ð¸ÑĨÑĭ": 2977,
      "ĠÑĢÐ¾Ñģ": 2978,
      "ĠÐļÐ°Ð·": 2979,
      "ĠÐŀÐ´Ð¸Ð½": 2980,
      "ĠÐ·Ð°Ð½ÑıÑĤ": 2981,
      "ĠÐĴÐ¿ÑĢÐ¾ÑĩÐµÐ¼": 2982,
      "Ð»Ð°ÑĪ": 2983,
      "ĠÐ³Ð»ÑĥÑħ": 2984,
      "ÐµÐ·Ð´Ð°": 2985,
      "ĠÐŁÐ¾ÑĩÐµÐ¼Ñĥ": 2986,
      "ĠÑĢÑĥÐºÐµ": 2987,
      "ĠÐłÐ¾Ð¼": 2988,
      "ÑĨÐ¸Ð¾Ð½": 2989,
      "ĠÐ³ÑĢÑĥÐ´ÑĮ": 2990,
      "ĠÑģÑĥÑīÐµÑģÑĤÐ²": 2991,
      "ĠÐµÐ¶ÐµÐ»Ð¸": 2992,
      "ĠÐĴÑĢÐ¾Ð½": 2993,
      "ĠÑĤÑĢÐµÑĤÑĮ": 2994,
      "ĠÐ·ÐµÐ¼Ð»Ðµ": 2995,
      "ÑģÐ½Ð¾": 2996,
      "ĠÐĶÑĢ": 2997,
      "Ð¼Ð°ÑĢ": 2998,
      "ĠÐ´ÐµÑĤÐµÐ¹": 2999
    },
    "merges": [
      [
        "Ġ",
        "Ð"
      ],
      [
        "Ð",
        "¾"
      ],
      [
        "Ð",
        "°"
      ],
      [
        "Ð",
        "µ"
      ],
      [
        "Ñ",
        "Ĥ"
      ],
      [
        "Ð",
        "¸"
      ],
      [
        "Ñ",
        "ģ"
      ],
      [
        "Ð¾",
        "Ð"
      ],
      [
        "Ð",
        "½"
      ],
      [
        "Ñ",
        "Ģ"
      ],
      [
        "Ð",
        "»"
      ],
      [
        "Ñ",
        "ĥ"
      ],
      [
        "Ð°",
        "Ð"
      ],
      [
        "Ñ",
        "ı"
      ],
      [
        "Ðµ",
        "Ð"
      ],
      [
        "Ñ",
        "Į"
      ],
      [
        "Ñ",
        "ĭ"
      ],
      [
        "Ġ",
        "Ñģ"
      ],
      [
        "ĠÐ",
        "¿"
      ],
      [
        "ĠÐ",
        "½"
      ],
      [
        "ĠÐ",
        "²"
      ],
      [
        "Ð",
        "º"
      ],
      [
        "Ñ",
        "ĩ"
      ],
      [
        "Ð",
        "²"
      ],
      [
        "Ð",
        "´"
      ],
      [
        "ĠÐ",
        "¾"
      ],
      [
        "ĠÐ",
        "¸"
      ],
      [
        "Ð",
        "¼"
      ],
      [
        "Ð°",
        "Ð»"
      ],
      [
        "ÑĤ",
        "Ð¾"
      ],
      [
        "ĠÐ",
        "º"
      ],
      [
        "Ñ",
        "Ī"
      ],
      [
        "Ð¾Ð",
        "²"
      ],
      [
        "Ñ",
        "ħ"
      ],
      [
        "Ñģ",
        "ÑĤ"
      ],
      [
        "Ðµ",
        "Ð½"
      ],
      [
        "ĠÐ",
        "´"
      ],
      [
        "ĠÐ",
        "±"
      ],
      [
        "Ð¾Ð",
        "»"
      ],
      [
        "Ġ",
        "ÑĤ"
      ],
      [
        "Ðµ",
        "ÑĢ"
      ],
      [
        "Ðµ",
        "Ð»"
      ],
      [
        "³",
        "Ð¾"
      ],
      [
        "Ġ",
        "-"
      ],
      [
        "Ñ",
        "İ"
      ],
      [
        "ĠÐ",
        "¼"
      ],
      [
        "Ð¾Ð",
        "¼"
      ],
      [
        "Ð½",
        "Ð¾"
      ],
      [
        "Ð¸",
        "Ð»"
      ],
      [
        "Ġ",
        "Ñĩ"
      ],
      [
        "Ðµ",
        "ÑĤ"
      ],
      [
        "Ð°Ð",
        "º"
      ],
      [
        "ĠÐ¿",
        "ÑĢ"
      ],
      [
        "Ñĥ",
        "Ð"
      ],
      [
        "ÑĤ",
        "ÑĮ"
      ],
      [
        "ĠÐ",
        "·"
      ],
      [
        "Ð¾Ð",
        "´"
      ],
      [
        "ĠÐ½",
        "Ðµ"
      ],
      [
        "Ð¾Ð",
        "¹"
      ],
      [
        "Ġ",
        "ÑĢ"
      ],
      [
        "Ð°Ð",
        "·"
      ],
      [
        "Ð",
        "¿"
      ],
      [
        "Ð½",
        "Ð°"
      ],
      [
        "ĠÐ",
        "µ"
      ],
      [
        "ĠÐ½",
        "Ð°"
      ],
      [
        "Ð¾",
        "ÑĢ"
      ],
      [
        "Ñģ",
        "Ñı"
      ],
      [
        "Ð",
        "·"
      ],
      [
        "ÐµÐ",
        "¼"
      ],
      [
        "Ð½",
        "Ð¸"
      ],
      [
        "Ð",
        "±"
      ],
      [
        "Ð¾",
        "Ñģ"
      ],
      [
        "Ð°Ð",
        "¼"
      ],
      [
        "Ð",
        "¹"
      ],
      [
        "ĠÐ",
        "³"
      ],
      [
        "Ð½",
        "Ñĭ"
      ],
      [
        "Ñ",
        "Ĩ"
      ],
      [
        "Ð°",
        "Ñģ"
      ],
      [
        "Ð°Ð",
        "²"
      ],
      [
        "Ġ",
        "Ñĥ"
      ],
      [
        "Ð¾",
        "ÑĤ"
      ],
      [
        "Ñ",
        "ī"
      ],
      [
        "ÐµÐ",
        "´"
      ],
      [
        "ĠÐ",
        "»"
      ],
      [
        "Ð»",
        "Ð¸"
      ],
      [
        "Ð¾Ð",
        "½"
      ],
      [
        "Ð°",
        "ÑĢ"
      ],
      [
        "ĠÐ±",
        "Ñĭ"
      ],
      [
        "Ð°",
        "Ð½"
      ],
      [
        "Ð¸",
        "ÑĤ"
      ],
      [
        "ĠÑĩ",
        "ÑĤÐ¾"
      ],
      [
        "Ð¸",
        "Ð½"
      ],
      [
        "Ġ",
        "Ñ"
      ],
      [
        "Ð¾Ð",
        "³"
      ],
      [
        "Ñģ",
        "Ðº"
      ],
      [
        "Ð",
        "³"
      ],
      [
        "Ð¸",
        "Ð²"
      ],
      [
        "Ð°",
        "ÑĤ"
      ],
      [
        "ĠÐ",
        "¶"
      ],
      [
        "Ð°Ð",
        "´"
      ],
      [
        "ĠÐ¾",
        "ÑĤ"
      ],
      [
        "ÐµÐ",
        "¹"
      ],
      [
        "Ð¾Ð",
        "±"
      ],
      [
        "Ð°",
        "Ñı"
      ],
      [
        "Ð¾Ð",
        "³Ð¾"
      ],
      [
        "Ð¸",
        "Ð¼"
      ],
      [
        "Ð°",
        "ÑĤÑĮ"
      ],
      [
        "ĠÐ",
        "Ŀ"
      ],
      [
        "ĠÑ",
        "į"
      ],
      [
        "ÐµÐ",
        "²"
      ],
      [
        "ĠÑģ",
        "ÑĤ"
      ],
      [
        "Ñģ",
        "ÑĮ"
      ],
      [
        "Ð¾Ð",
        "¶"
      ],
      [
        "Ð¾Ð",
        "º"
      ],
      [
        "Ð½",
        "Ñĥ"
      ],
      [
        "ĠÐº",
        "Ð°Ðº"
      ],
      [
        "ĠÐ",
        "Ĵ"
      ],
      [
        "ĠÐ",
        "Ł"
      ],
      [
        "Ð",
        "¶"
      ],
      [
        "ĠÐ¾",
        "Ð½"
      ],
      [
        "ĠÐ¿",
        "Ð¾"
      ],
      [
        "ĠÐ²",
        "Ñģ"
      ],
      [
        "ĠÐ²",
        "Ñĭ"
      ],
      [
        "Ġ",
        "Ñı"
      ],
      [
        "ÐµÐ½",
        "Ð¸"
      ],
      [
        "Ð",
        "³Ð¾"
      ],
      [
        "Ñĥ",
        "Ð´"
      ],
      [
        "Ð¾Ð»",
        "ÑĮ"
      ],
      [
        "ÑĤÐ¾",
        "ÑĢ"
      ],
      [
        "ÑģÑĤ",
        "Ð²"
      ],
      [
        "ÑĥÐ",
        "¶"
      ],
      [
        "â",
        "Ģ"
      ],
      [
        "Ð¸",
        "Ðº"
      ],
      [
        "ĠÑģ",
        "Ðº"
      ],
      [
        "Ð¸",
        "Ð´"
      ],
      [
        "ĠÐ",
        "ŀ"
      ],
      [
        "Ġ",
        "Ñħ"
      ],
      [
        "ÐµÐ",
        "·"
      ],
      [
        "ĠÐ±Ñĭ",
        "Ð»"
      ],
      [
        "ĠÐ",
        "¡"
      ],
      [
        "ĠÑģ",
        "Ð²"
      ],
      [
        "ĠÐ",
        "°"
      ],
      [
        "ÐµÐ",
        "³Ð¾"
      ],
      [
        "ĠÐ¾",
        "Ð±"
      ],
      [
        "ÐµÐ",
        "±"
      ],
      [
        "Ð»",
        "Ñı"
      ],
      [
        "Ð¸",
        "Ñħ"
      ],
      [
        "Ð°Ð»",
        "Ð°"
      ],
      [
        "Ðº",
        "Ð¾"
      ],
      [
        "ÐµÐ",
        "º"
      ],
      [
        "ĠÐµ",
        "Ð³Ð¾"
      ],
      [
        "Ð¸",
        "Ñĩ"
      ],
      [
        "Ð°Ð",
        "¶"
      ],
      [
        "ĠÐ",
        "ļ"
      ],
      [
        "ĠÐ",
        "Ĳ"
      ],
      [
        "ĠÐ¿",
        "Ð¾Ð´"
      ],
      [
        "Ñ",
        "Ĭ"
      ],
      [
        "Ð¾Ð",
        "·"
      ],
      [
        "Ðº",
        "Ð¸"
      ],
      [
        "Ðº",
        "Ð°"
      ],
      [
        "Ð´",
        "Ð°"
      ],
      [
        "ÑĥÐ",
        "³"
      ],
      [
        "Ð°Ð»",
        "Ð¸"
      ],
      [
        "ÐµÐ»",
        "ÑĮ"
      ],
      [
        "ĠÑģ",
        "Ð»"
      ],
      [
        "Ġ",
        "âĢ"
      ],
      [
        "ÐµÐ",
        "¿"
      ],
      [
        "Ðµ",
        "Ñģ"
      ],
      [
        "Ð¸",
        "ÑĤÑĮ"
      ],
      [
        "ÑĢ",
        "Ð°"
      ],
      [
        "ĠÑĤ",
        "Ð°Ðº"
      ],
      [
        "ĠÐ¸",
        "Ð·"
      ],
      [
        "ĠÐ·",
        "Ð°"
      ],
      [
        "Ðµ",
        "Ñĩ"
      ],
      [
        "ĠÐ",
        "ľ"
      ],
      [
        "ĠÐ¿ÑĢ",
        "Ð¸"
      ],
      [
        "Ðµ",
        "ÑģÑĤ"
      ],
      [
        "Ñĥ",
        "ÑĤ"
      ],
      [
        "ĠÐ",
        "ĺ"
      ],
      [
        "Ð¾",
        "Ñĩ"
      ],
      [
        "ĠÐ",
        "Ķ"
      ],
      [
        "ĠÑĢ",
        "Ð°Ð·"
      ],
      [
        "Ð½",
        "Ðµ"
      ],
      [
        "Ð°Ð¼",
        "Ð¸"
      ],
      [
        "Ð»",
        "Ð°"
      ],
      [
        "Ð¾Ð²",
        "Ð¾ÑĢ"
      ],
      [
        "ĠÑį",
        "ÑĤÐ¾"
      ],
      [
        "Ñĥ",
        "Ð¼"
      ],
      [
        "ĠÐº",
        "ÑĢ"
      ],
      [
        "Ð¾",
        "ÑģÑĤ"
      ],
      [
        "Ðµ",
        "ÑĪ"
      ],
      [
        "ÐµÐ½",
        "ÑĮ"
      ],
      [
        "Ð¸",
        "Ð¹"
      ],
      [
        "ĠÐ",
        "¢"
      ],
      [
        "ĠÐ²Ñģ",
        "Ðµ"
      ],
      [
        "Ð¾Ð",
        "¿"
      ],
      [
        "Ġ",
        "ÑĪ"
      ],
      [
        "Ġ",
        "ÑĤÐ¾"
      ],
      [
        "ĠÐº",
        "Ð¾"
      ],
      [
        "ĠÑį",
        "ÑĤ"
      ],
      [
        "Ñĭ",
        "Ð²"
      ],
      [
        "ÐµÐ",
        "¶"
      ],
      [
        "Ð½Ñĭ",
        "Ð¹"
      ],
      [
        "Ð°Ð",
        "¿"
      ],
      [
        "ĠÑģÐº",
        "Ð°Ð·"
      ],
      [
        "Ñĭ",
        "Ð¹"
      ],
      [
        "Ðº",
        "Ñĥ"
      ],
      [
        "ĠÑģ",
        "Ð¿"
      ],
      [
        "Ð½",
        "Ñı"
      ],
      [
        "ĠÐ¿",
        "ÐµÑĢ"
      ],
      [
        "ĠÐ¾",
        "Ð½Ð°"
      ],
      [
        "Ñĥ",
        "ÑĪ"
      ],
      [
        "ĠâĢ",
        "ĵ"
      ],
      [
        "Ð½",
        "Ð¾Ð¹"
      ],
      [
        "Ð°Ñģ",
        "ÑĮ"
      ],
      [
        "ÑĢ",
        "Ð¸"
      ],
      [
        "ĠÑģÐ²",
        "Ð¾"
      ],
      [
        "ĠÐ½",
        "Ð¾"
      ],
      [
        "Ð°Ð",
        "¹"
      ],
      [
        "Ñĥ",
        "Ñĩ"
      ],
      [
        "Ð¼",
        "Ð¸"
      ],
      [
        "ĠÐ»",
        "Ð¸"
      ],
      [
        "Ñī",
        "Ðµ"
      ],
      [
        "Ñı",
        "ÑĤ"
      ],
      [
        "Ð¾",
        "ÑĪ"
      ],
      [
        "Ð¸Ð»",
        "Ð¸"
      ],
      [
        "ÐµÐ½",
        "Ð½Ð¾"
      ],
      [
        "Ñ",
        "Ħ"
      ],
      [
        "ÑĥÐ",
        "±"
      ],
      [
        "ĠÐ¶",
        "Ðµ"
      ],
      [
        "Ð°Ð",
        "±"
      ],
      [
        "ĠÐ¾",
        "Ð´"
      ],
      [
        "ÑĢ",
        "ÑĥÐ³"
      ],
      [
        "Ð¾Ð»ÑĮ",
        "ÐºÐ¾"
      ],
      [
        "Ñĥ",
        "Ñİ"
      ],
      [
        "Ð¸Ð»",
        "Ð°"
      ],
      [
        "ĠÐºÐ¾",
        "ÑĤÐ¾ÑĢ"
      ],
      [
        "ÑĥÐ",
        "¿"
      ],
      [
        "Ð¾Ð³",
        "Ð´Ð°"
      ],
      [
        "ĠÐ",
        "³Ð¾"
      ],
      [
        "Ð¸",
        "Ðµ"
      ],
      [
        "ĠÐ¿",
        "Ð¾Ð»"
      ],
      [
        "ÐµÐ",
        "³"
      ],
      [
        "Ð°Ð",
        "³"
      ],
      [
        "ĠÐµ",
        "Ðµ"
      ],
      [
        "ÑģÑĤ",
        "ÑĮ"
      ],
      [
        "ĠÐ±ÑĭÐ»",
        "Ð¾"
      ],
      [
        "Ð¾Ð¼",
        "Ñĥ"
      ],
      [
        "ĠÐ",
        "¯"
      ],
      [
        "Ð½Ñĥ",
        "Ð»"
      ],
      [
        "Ð½",
        "Ð¾Ð³Ð¾"
      ],
      [
        "Ġ",
        "\""
      ],
      [
        "Ð¾",
        "Ðµ"
      ],
      [
        "ĠÐ¿",
        "Ð¾Ñģ"
      ],
      [
        "ĠÐ´",
        "Ð²"
      ],
      [
        "Ð¼",
        "Ñĥ"
      ],
      [
        "Ð°",
        "Ñİ"
      ],
      [
        "Ġ",
        "ÑĥÐ¶"
      ],
      [
        "ĠÐ³",
        "Ð»"
      ],
      [
        "Ð½Ñĭ",
        "Ðµ"
      ],
      [
        "Ð¾Ñģ",
        "ÑĮ"
      ],
      [
        "Ð¸",
        "ÑĢ"
      ],
      [
        "Ð°Ð»",
        "ÑĮ"
      ],
      [
        "ĠÐ³",
        "Ð¾Ð²Ð¾ÑĢ"
      ],
      [
        "ĠÐ",
        "ĵ"
      ],
      [
        "Ð¾Ð²",
        "Ð°"
      ],
      [
        "ĠÐ»",
        "Ñİ"
      ],
      [
        "ĠÐ",
        "Ľ"
      ],
      [
        "Ð°",
        "ÐµÑĤ"
      ],
      [
        "ÐµÐ½",
        "Ñı"
      ],
      [
        "Ð°",
        "Ñħ"
      ],
      [
        "Ð¸",
        "Ð·"
      ],
      [
        "ĠÑĢ",
        "Ñĥ"
      ],
      [
        "Ñĭ",
        "Ðµ"
      ],
      [
        "ĠÐ",
        "ĳ"
      ],
      [
        "ĠÑģ",
        "Ð°Ð¼"
      ],
      [
        "ĠÑģ",
        "Ð¼"
      ],
      [
        "ĠÐ³",
        "Ð¾Ð»"
      ],
      [
        "Ð¸Ð»",
        "ÑģÑı"
      ],
      [
        "ÑĢ",
        "Ð¾Ñģ"
      ],
      [
        "ĠÑĢ",
        "Ð°Ñģ"
      ],
      [
        "Ð½Ñĭ",
        "Ð¼"
      ],
      [
        "Ñĥ",
        "ÑĢ"
      ],
      [
        "ÑģÑĤ",
        "ÑĢ"
      ],
      [
        "Ð°",
        "ÑĪ"
      ],
      [
        "Ñĭ",
        "Ñħ"
      ],
      [
        "Ð°Ð»",
        "ÑģÑı"
      ],
      [
        "Ð°",
        "Ð½Ð¸"
      ],
      [
        "ĠÐ²",
        "Ð·"
      ],
      [
        "ĠÐ¼",
        "ÐµÐ½Ñı"
      ],
      [
        "ĠÑĤ",
        "ÑĢ"
      ],
      [
        "ĠÐ±",
        "ÑĥÐ´"
      ],
      [
        "ĠÐŀ",
        "Ð½"
      ],
      [
        "Ð´",
        "Ðµ"
      ],
      [
        "ĠÑĤ",
        "Ñĭ"
      ],
      [
        "Ñģ",
        "Ð¿"
      ],
      [
        "Ð½Ð°",
        "Ñı"
      ],
      [
        "ÐµÐ½Ð¸",
        "Ðµ"
      ],
      [
        "Ñħ",
        "Ð¾Ð´"
      ],
      [
        "Ð½Ñĭ",
        "Ñħ"
      ],
      [
        "ĠÑģ",
        "ÐµÐ±"
      ],
      [
        "Ð¸ÑĤ",
        "ÐµÐ»ÑĮ"
      ],
      [
        "ÐµÑĢ",
        "ÑĮ"
      ],
      [
        "Ñĭ",
        "Ð¼"
      ],
      [
        "ÐµÐ½Ð¸",
        "Ñı"
      ],
      [
        "ĠÑģÐºÐ°Ð·",
        "Ð°Ð»"
      ],
      [
        "Ðµ",
        "Ñħ"
      ],
      [
        "Ð¸",
        "Ñģ"
      ],
      [
        "ĠÐ¼",
        "Ð½Ðµ"
      ],
      [
        "ĠÐ",
        "ł"
      ],
      [
        "ÑĤ",
        "Ðµ"
      ],
      [
        "ÑĤ",
        "Ð¸"
      ],
      [
        "Ñ",
        "£"
      ],
      [
        "ĠÐ²",
        "Ð¸Ð´"
      ],
      [
        "ĠÐ¿",
        "Ð¾ÑĤ"
      ],
      [
        "ĠÐµ",
        "Ð¼Ñĥ"
      ],
      [
        "ĠÑĤ",
        "Ð¾Ð»ÑĮÐºÐ¾"
      ],
      [
        "Ð½Ð¾",
        "Ðµ"
      ],
      [
        "ÐµÐ»",
        "Ð¾Ð²"
      ],
      [
        "ĠÐ¿",
        "Ð¾Ðº"
      ],
      [
        "ÑĪ",
        "Ðµ"
      ],
      [
        "ÑĢ",
        "Ð°Ð²"
      ],
      [
        "ĠÑ",
        "Ħ"
      ],
      [
        "ĠÐµ",
        "ÑīÐµ"
      ],
      [
        "Ðº",
        "Ð¾Ð²"
      ],
      [
        "ĠÐ³",
        "ÑĢ"
      ],
      [
        "ĠÐ½",
        "Ð°Ð´"
      ],
      [
        "ĠÐ¾",
        "Ð¿"
      ],
      [
        "ĠÐ¿",
        "Ð»"
      ],
      [
        "ÑģÑĤ",
        "Ð¸"
      ],
      [
        "ÐµÐ»",
        "Ð¸"
      ],
      [
        "ÐµÐ¼",
        "Ñĥ"
      ],
      [
        "Ñı",
        "ÑĤÑĮ"
      ],
      [
        "Ñĥ",
        "Ñħ"
      ],
      [
        "Ñı",
        "Ð»"
      ],
      [
        "ĠÐ·",
        "Ð½Ð°"
      ],
      [
        "ĠÐ",
        "§"
      ],
      [
        "ĠÐ´",
        "ÐµÐ»"
      ],
      [
        "ĠÐ´",
        "ÑĢÑĥÐ³"
      ],
      [
        "Ð¸",
        "Ð½Ð°"
      ],
      [
        "ÑģÑĤ",
        "Ð°Ð²"
      ],
      [
        "ĠÐ",
        "ķ"
      ],
      [
        "ÑĢ",
        "ÐµÐ¼"
      ],
      [
        "ĠÐ¿ÑĢ",
        "ÐµÐ´"
      ],
      [
        "ĠÐ³Ð»",
        "Ð°Ð·"
      ],
      [
        "ĠÐ¸",
        "Ð¼"
      ],
      [
        "ĠÐ¾",
        "Ñĩ"
      ],
      [
        "ĠÐ¾ÑĤ",
        "Ð²"
      ],
      [
        "ĠÐ¿ÑĢ",
        "Ð¾"
      ],
      [
        "Ñĭ",
        "ÑĪ"
      ],
      [
        "Ñģ",
        "Ð»"
      ],
      [
        "ĠÐ³Ð¾",
        "ÑĢ"
      ],
      [
        "ÑĥÐ",
        "·"
      ],
      [
        "Ð¸ÑĤ",
        "Ðµ"
      ],
      [
        "Ñĥ",
        "Ð²"
      ],
      [
        "ĠÑĥÐ¶",
        "Ðµ"
      ],
      [
        "Ðº",
        "Ðµ"
      ],
      [
        "Ð°Ð½",
        "Ð¾Ð²"
      ],
      [
        "ĠÐ²",
        "Ð¾Ð·"
      ],
      [
        "ÑĨ",
        "Ð°"
      ],
      [
        "ĠÐ",
        "Ĺ"
      ],
      [
        "Ð»Ð¸",
        "Ð²"
      ],
      [
        "ĠÐ¼",
        "Ñĭ"
      ],
      [
        "ĠÑģÑĤ",
        "Ð°ÑĢ"
      ],
      [
        "Ð°Ð»",
        "Ð¾"
      ],
      [
        "Ðº",
        "Ð¾Ð¹"
      ],
      [
        "ĠÐ½",
        "Ð¸"
      ],
      [
        "Ġ",
        "ÑĨ"
      ],
      [
        "Ð¾ÑĤ",
        "ÑĢ"
      ],
      [
        "Ð»",
        "Ñİ"
      ],
      [
        "Ðµ",
        "ÑĨ"
      ],
      [
        "Ðµ",
        "ÑģÐº"
      ],
      [
        "ĠÐ»Ñİ",
        "Ð±"
      ],
      [
        "ÐµÐ»",
        "Ð°"
      ],
      [
        "ĠÐ¼",
        "Ð¾Ð»"
      ],
      [
        "ÑĮ",
        "Ñı"
      ],
      [
        "ĠÐ",
        "Ń"
      ],
      [
        "ĠÐ¼",
        "Ð¾"
      ],
      [
        "ĠÑĩ",
        "ÐµÐ»Ð¾Ð²"
      ],
      [
        "ĠÐ¼",
        "Ð¾Ð³"
      ],
      [
        "ÑĤ",
        "Ð¾Ð±"
      ],
      [
        "ĠÐº",
        "Ð¾Ð½"
      ],
      [
        "Ð¾Ð±",
        "ÑĢ"
      ],
      [
        "ĠÐĿ",
        "Ð¾"
      ],
      [
        "Ñĥ",
        "Ð»"
      ],
      [
        "ĠÐº",
        "Ð¾Ð³Ð´Ð°"
      ],
      [
        "ĠÑĩ",
        "ÐµÑĢ"
      ],
      [
        "ĠÑģ",
        "Ð¾"
      ],
      [
        "ĠÐ¾",
        "Ðº"
      ],
      [
        "ĠÐ±",
        "ÐµÐ·"
      ],
      [
        "ÐµÑĪ",
        "ÑĮ"
      ],
      [
        "ĠÐ½",
        "ÐµÐ³Ð¾"
      ],
      [
        "ĠÐ¾",
        "Ñģ"
      ],
      [
        "ĠÑĩ",
        "ÑĤÐ¾Ð±"
      ],
      [
        "ĠÐ±",
        "Ð¾Ð»ÑĮ"
      ],
      [
        "Ð»Ñı",
        "Ð´"
      ],
      [
        "Ð¸Ð¼",
        "Ð¸"
      ],
      [
        "ĠÐ¼",
        "Ð¾Ð¶"
      ],
      [
        "Ñģ",
        "Ð»Ð¸"
      ],
      [
        "ĠÑĤ",
        "ÐµÐ±"
      ],
      [
        "ĠÐ¸",
        "Ñħ"
      ],
      [
        "ĠÐ´",
        "Ð¾"
      ],
      [
        "ĠÐ´",
        "Ð»Ñı"
      ],
      [
        "Ð²",
        "ÐµÑĢ"
      ],
      [
        "ÑĢ",
        "Ð°ÑĤ"
      ],
      [
        "Ð½Ð¸",
        "Ð¼"
      ],
      [
        "Ð½Ñĥ",
        "Ñİ"
      ],
      [
        "ĠÐ¿Ð¾Ñģ",
        "Ð»"
      ],
      [
        "Ð»",
        "Ð¾"
      ],
      [
        "ÐµÐ¿",
        "ÐµÑĢÑĮ"
      ],
      [
        "ÑĪ",
        "Ð¸"
      ],
      [
        "ĠÐ",
        "£"
      ],
      [
        "Ð¸",
        "Ñı"
      ],
      [
        "ĠÑĩÐµÐ»Ð¾Ð²",
        "ÐµÐº"
      ],
      [
        "Ð¾Ð»",
        "Ð¶"
      ],
      [
        "ĠÐ²",
        "ÐµÑĢ"
      ],
      [
        "ĠÐ²",
        "Ð¾"
      ],
      [
        "Ðµ",
        "Ðµ"
      ],
      [
        "Ð°Ñı",
        "ÑģÑĮ"
      ],
      [
        "Ð°",
        "ÑģÑĤ"
      ],
      [
        "ĠÑģ",
        "Ð¾Ð²"
      ],
      [
        "ĠÐ¿Ð¾",
        "Ñĩ"
      ],
      [
        "ĠÑĥ",
        "Ð´"
      ],
      [
        "Ð°Ð»",
        "Ð¾ÑģÑĮ"
      ],
      [
        "ĠÐ¿",
        "Ð¾Ð½"
      ],
      [
        "Ðº",
        "Ð¾Ð¼"
      ],
      [
        "ĠÐ·",
        "Ð°Ð¼"
      ],
      [
        "ĠÐ¿",
        "Ð¾Ð²"
      ],
      [
        "Ð´",
        "Ñĥ"
      ],
      [
        "ĠÐ¿",
        "Ð¾ÑĢ"
      ],
      [
        "Ñĥ",
        "ÑģÑĤ"
      ],
      [
        "ÑĢ",
        "Ð°Ð½"
      ],
      [
        "Ð¸",
        "ÑĪ"
      ],
      [
        "ÐµÑĤ",
        "ÑģÑı"
      ],
      [
        "ÑĥÐ²",
        "ÑģÑĤÐ²"
      ],
      [
        "Ð½",
        "Ð¾Ð²"
      ],
      [
        "Ð½",
        "Ð¾Ð¼"
      ],
      [
        "ÑĢ",
        "Ð¾Ð²"
      ],
      [
        "ĠÑħ",
        "Ð¾ÑĤ"
      ],
      [
        "ÐµÑĤ",
        "Ðµ"
      ],
      [
        "ĠÐĶ",
        "Ð°"
      ],
      [
        "ĠÐ»Ð¸",
        "ÑĨ"
      ],
      [
        "ÑĢ",
        "Ñĭ"
      ],
      [
        "ĠÐ½",
        "Ð°Ð¿"
      ],
      [
        "ĠÑģÐµÐ±",
        "Ñı"
      ],
      [
        "ĠÐ±",
        "Ð»"
      ],
      [
        "ĠÐ",
        "¤"
      ],
      [
        "ĠÐº",
        "Ð¾Ð¼"
      ],
      [
        "ĠÐ±Ñĭ",
        "ÑĤÑĮ"
      ],
      [
        "Ð°",
        "Ñĩ"
      ],
      [
        "Ð¸Ð»",
        "Ð°ÑģÑĮ"
      ],
      [
        "ĠÐ¿",
        "Ð¾Ð¼"
      ],
      [
        "Ð°Ð¶",
        "Ðµ"
      ],
      [
        "ĠÐĿ",
        "Ðµ"
      ],
      [
        "Ð°Ð»Ð¸",
        "ÑģÑĮ"
      ],
      [
        "Ð»",
        "ÐµÐ½"
      ],
      [
        "ĠÑģ",
        "Ð¾Ð±"
      ],
      [
        "ĠÐ¾",
        "Ð½Ð¸"
      ],
      [
        "ĠÐ¾Ñĩ",
        "ÐµÐ½ÑĮ"
      ],
      [
        "ĠÐ½Ð°",
        "Ñģ"
      ],
      [
        "ĠÐ²",
        "Ð´"
      ],
      [
        "ÐµÑĤ",
        "ÑĮ"
      ],
      [
        "Ð°Ð»",
        "Ð°ÑģÑĮ"
      ],
      [
        "ĠÐ±ÑĭÐ»",
        "Ð°"
      ],
      [
        "Ð»",
        "Ñĭ"
      ],
      [
        "Ð¾",
        "Ñħ"
      ],
      [
        "ĠÑĤ",
        "ÐµÐ¼"
      ],
      [
        "Ð°ÑĤÑĮ",
        "ÑģÑı"
      ],
      [
        "Ð¾",
        "Ñİ"
      ],
      [
        "ĠÑĤ",
        "ÐµÐ¿ÐµÑĢÑĮ"
      ],
      [
        "ÑĢ",
        "Ñı"
      ],
      [
        "ĠÐ´",
        "Ð°"
      ],
      [
        "ĠÐ²",
        "Ð¾ÑĤ"
      ],
      [
        "ĠÐ½",
        "Ð¸Ðº"
      ],
      [
        "ĠÑģ",
        "ÐµÑĢ"
      ],
      [
        "ĠÐ´",
        "ÑĥÐ¼"
      ],
      [
        "Ñ",
        "ĳ"
      ],
      [
        "ĠÐ¸",
        "Ð»Ð¸"
      ],
      [
        "ÑĮ",
        "Ñİ"
      ],
      [
        "ĠÐ³Ð¾Ð»",
        "Ð¾Ð²"
      ],
      [
        "Ð¸",
        "ÑĨ"
      ],
      [
        "ĠÐŁ",
        "ÑĢ"
      ],
      [
        "ĠÐ²",
        "ÑĢÐµÐ¼"
      ],
      [
        "ĠÐ²",
        "Ð°Ñģ"
      ],
      [
        "ĠÐ½Ð°",
        "Ñĩ"
      ],
      [
        "ĠÐ»Ñİ",
        "Ð´"
      ],
      [
        "ĠÐ´",
        "Ð°Ð¶Ðµ"
      ],
      [
        "ĠÐ¶",
        "ÐµÐ½"
      ],
      [
        "ĠÑģÐ¿",
        "ÑĢÐ¾Ñģ"
      ],
      [
        "Ð°Ð²",
        "ÑĪ"
      ],
      [
        "ĠÐ´",
        "Ð¾Ð¼"
      ],
      [
        "ĠÐ¾",
        "ÑģÑĤ"
      ],
      [
        "ÑĥÐ´",
        "ÑĮ"
      ],
      [
        "ĠÐŀ",
        "Ð½Ð°"
      ],
      [
        "ĠÑĩ",
        "ÐµÐ¼"
      ],
      [
        "ĠÑĥ",
        "Ð¼"
      ],
      [
        "Ð¸ÑĤÐµÐ»ÑĮ",
        "Ð½Ð¾"
      ],
      [
        "ÑĥÐ´",
        "Ð°"
      ],
      [
        "ĠÐ½",
        "ÐµÐ¿"
      ],
      [
        "ĠÐ²",
        "Ð¾Ñģ"
      ],
      [
        "Ð¸",
        "Ð¸"
      ],
      [
        "ĠÐĲ",
        "Ð½"
      ],
      [
        "Ñģ",
        "Ðµ"
      ],
      [
        "Ð¾Ð¶",
        "Ðµ"
      ],
      [
        "ÑĪ",
        "ÐµÐ»"
      ],
      [
        "Ġ",
        "("
      ],
      [
        "ĠÑģ",
        "ÑĤÐ¾"
      ],
      [
        "ĠÐ·",
        "Ð½"
      ],
      [
        "ÑĢ",
        "Ð°Ð·"
      ],
      [
        "Ð¸Ð»",
        "ÑĮ"
      ],
      [
        "ÑĢ",
        "ÐµÐ´"
      ],
      [
        "ĠÐ²",
        "Ð¿"
      ],
      [
        "ĠÐ·",
        "Ð°Ðº"
      ],
      [
        "ĠÐ·",
        "Ð°Ð¿"
      ],
      [
        "ĠÐµ",
        "Ð¹"
      ],
      [
        "ĠÐĿ",
        "Ñĥ"
      ],
      [
        "ÑģÑĤÐ²",
        "Ð¾"
      ],
      [
        "ĠÐŃ",
        "ÑĤÐ¾"
      ],
      [
        "Ð½Ñĭ",
        "Ð¼Ð¸"
      ],
      [
        "ĠÐļ",
        "Ð°Ðº"
      ],
      [
        "ÑĢ",
        "Ð¾Ð´"
      ],
      [
        "ĠÑĩÑĤÐ¾Ð±",
        "Ñĭ"
      ],
      [
        "Ð¸",
        "Ð³"
      ],
      [
        "ĠÐĺ",
        "Ð²"
      ],
      [
        "ĠÐº",
        "Ð°Ð·"
      ],
      [
        "ĠÐ½",
        "Ð¸Ñĩ"
      ],
      [
        "ÑĨ",
        "Ðµ"
      ],
      [
        "Ð¾ÑĢ",
        "Ð¾ÑĪ"
      ],
      [
        "ÐµÑĢ",
        "Ð¶"
      ],
      [
        "Ð´",
        "ÐµÐ»"
      ],
      [
        "ĠÐ¡",
        "ÑĤ"
      ],
      [
        "Ð¸",
        "ÑģÑĤ"
      ],
      [
        "Ð½Ð¸",
        "Ðº"
      ],
      [
        "Ðµ",
        "Ñī"
      ],
      [
        "Ð´",
        "ÑĢ"
      ],
      [
        "ĠÐ¿ÑĢ",
        "Ð°Ð²"
      ],
      [
        "ĠÐ½",
        "ÐµÐ¼"
      ],
      [
        "ĠÐ±",
        "Ð¾Ð»"
      ],
      [
        "Ð°ÑĤ",
        "ÐµÐ»ÑĮ"
      ],
      [
        "ĠÑĩ",
        "ÑĥÐ²ÑģÑĤÐ²"
      ],
      [
        "Ð½",
        "ÐµÐ¹"
      ],
      [
        "Ð¸Ð»Ð¸",
        "ÑģÑĮ"
      ],
      [
        "ĠÐ½",
        "ÐµÑĤ"
      ],
      [
        "ĠÐ±",
        "ÐµÑģ"
      ],
      [
        "ĠÐº",
        "Ð¾Ð»"
      ],
      [
        "ĠÑĥ",
        "Ð²"
      ],
      [
        "Ð¸Ð½",
        "Ñĥ"
      ],
      [
        "ĠÐ±Ñĭ",
        "Ð»Ð¸"
      ],
      [
        "ĠÐ²",
        "Ð°Ð¼"
      ],
      [
        "ÑĤ",
        "Ð°"
      ],
      [
        "ĠÐ¶",
        "Ð¸Ð·"
      ],
      [
        "ĠÐľ",
        "Ð°ÑĢ"
      ],
      [
        "ĠÐ²Ð´",
        "ÑĢÑĥÐ³"
      ],
      [
        "ĠÐ¿ÑĢ",
        "Ð¾Ñģ"
      ],
      [
        "Ð»Ñĭ",
        "Ð±"
      ],
      [
        "ÑĤ",
        "ÑĢ"
      ],
      [
        "Ð°Ñİ",
        "ÑĤ"
      ],
      [
        "Ð¸ÑĤÑĮ",
        "ÑģÑı"
      ],
      [
        "ĠÑģÐµÐ±",
        "Ðµ"
      ],
      [
        "ĠÐ´",
        "ÑĢ"
      ],
      [
        "ĠÑĤ",
        "Ð¾Ð³Ð¾"
      ],
      [
        "Ñĥ",
        "Ñģ"
      ],
      [
        "Ð°Ð·",
        "ÑĭÐ²"
      ],
      [
        "Ð¸",
        "Ð¶"
      ],
      [
        "ĠÑģÐºÐ°Ð·",
        "Ð°Ð»Ð°"
      ],
      [
        "Ñĭ",
        "Ð»"
      ],
      [
        "ĠÑĥ",
        "Ð»ÑĭÐ±"
      ],
      [
        "ÑĢÐ°",
        "ÑĪ"
      ],
      [
        "ĠÑģÐ»",
        "Ð¾Ð²"
      ],
      [
        "Ñĩ",
        "Ð°Ñģ"
      ],
      [
        "Ð½Ð¾",
        "ÑģÑĤÑĮ"
      ],
      [
        "ĠÐºÑĢ",
        "Ð°Ñģ"
      ],
      [
        "Ñı",
        "Ð·"
      ],
      [
        "ĠÐ³Ð¾Ð»",
        "Ð¾Ñģ"
      ],
      [
        "ĠÐº",
        "Ð¾ÑĢ"
      ],
      [
        "ĠÐŁ",
        "ÐµÑĤ"
      ],
      [
        "ĠÐ½",
        "Ð¸Ð¼"
      ],
      [
        "ĠÑģÑĤ",
        "Ð¾Ð»"
      ],
      [
        "Ð»",
        "ÐµÐº"
      ],
      [
        "ĠÐ§",
        "ÑĤÐ¾"
      ],
      [
        "ĠÐ¿",
        "Ð¾Ð¿"
      ],
      [
        "ĠÐº",
        "Ð½Ñı"
      ],
      [
        "ÐµÐ´",
        "ÑĮ"
      ],
      [
        "ĠÐĴ",
        "Ñĭ"
      ],
      [
        "ĠÐ¾",
        "Ð³"
      ],
      [
        "ĠÐµ",
        "ÑģÐ»Ð¸"
      ],
      [
        "ĠÐ²",
        "Ð°ÑĪ"
      ],
      [
        "ÑĤ",
        "Ñĭ"
      ],
      [
        "ĠÐ¾ÑĤ",
        "Ðº"
      ],
      [
        "Ð½Ð¾",
        "ÑģÑĤÐ¸"
      ],
      [
        "ĠÐ¼Ð¾Ð¶",
        "ÐµÑĤ"
      ],
      [
        "ĠÐ¡",
        "Ð°Ð¼"
      ],
      [
        "ĠÐ¿ÐµÑĢ",
        "ÐµÐ´"
      ],
      [
        "Ġ",
        "ÑĥÐ³"
      ],
      [
        "ÑģÐº",
        "Ð¸Ð¹"
      ],
      [
        "ĠÐ²",
        "Ð¾Ð»"
      ],
      [
        "ĠÐ·",
        "Ð°Ð±"
      ],
      [
        "ÐºÐ¸",
        "Ð¹"
      ],
      [
        "ÐµÑĢ",
        "Ð°"
      ],
      [
        "Ð°Ð¶",
        "Ð´"
      ],
      [
        "Ð»",
        "Ð°Ð´"
      ],
      [
        "Ñĥ",
        "Ðº"
      ],
      [
        "ĠÐ½",
        "ÐµÐ¹"
      ],
      [
        "ĠÐ¸",
        "ÑģÐ¿"
      ],
      [
        "ĠÐ½Ð¸Ñĩ",
        "ÐµÐ³Ð¾"
      ],
      [
        "ĠÐ³Ð»Ð°Ð·",
        "Ð°"
      ],
      [
        "Ð¸Ð½",
        "ÑĥÑĤ"
      ],
      [
        "Ñĭ",
        "ÑĤ"
      ],
      [
        "ĠÐ¿",
        "Ð¾Ð·"
      ],
      [
        "ĠÑįÑĤ",
        "Ð¾Ð³Ð¾"
      ],
      [
        "ÑĢ",
        "Ð°Ñģ"
      ],
      [
        "ÑĨ",
        "Ñĭ"
      ],
      [
        "ĠÐ½",
        "ÐµÐ²"
      ],
      [
        "Ð½Ðµ",
        "Ðµ"
      ],
      [
        "Ð½Ñĥ",
        "Ð²"
      ],
      [
        "ĠÐ²ÑĢÐµÐ¼",
        "Ñı"
      ],
      [
        "Ñı",
        "Ð´"
      ],
      [
        "ĠÐ±ÑĥÐ´",
        "ÐµÑĤ"
      ],
      [
        "\"",
        "."
      ],
      [
        "ĠÐ³",
        "Ð´Ðµ"
      ],
      [
        "ĠÐ½",
        "ÐµÐ´"
      ],
      [
        "Ġ",
        "ÑĥÐ±"
      ],
      [
        "ĠÑĩ",
        "Ð°Ñģ"
      ],
      [
        "ĠÑĤÐ¾",
        "ÑĤ"
      ],
      [
        "Ñĩ",
        "Ð°"
      ],
      [
        "ÑĤ",
        "Ð¾Ð²"
      ],
      [
        "ĠÐ·",
        "Ð°Ð²"
      ],
      [
        "âĢ",
        "Ŀ"
      ],
      [
        "Ðº",
        "Ð°Ð¼Ð¸"
      ],
      [
        "ĠÐ¿ÑĢ",
        "Ð¾Ð´"
      ],
      [
        "ÐµÐ»",
        "Ð¾"
      ],
      [
        "Ð±",
        "ÑĥÐ´ÑĮ"
      ],
      [
        "ĠÐ½Ð°",
        "ÑĪ"
      ],
      [
        "Ð½ÑĥÐ»",
        "ÑģÑı"
      ],
      [
        "ĠÐĿ",
        "Ð°"
      ],
      [
        "ĠâĢ",
        "Ķ"
      ],
      [
        "ĠâĢ",
        "ľ"
      ],
      [
        "ĠÐº",
        "Ð°ÑĢ"
      ],
      [
        "Ð¾Ð´",
        "Ð°"
      ],
      [
        "ĠÑģÐµÑĢ",
        "Ð´"
      ],
      [
        ",",
        "-"
      ],
      [
        "Ð½Ð¸",
        "Ð±ÑĥÐ´ÑĮ"
      ],
      [
        "ĠÑģÑĤ",
        "ÑĢ"
      ],
      [
        "ĠÑħ",
        "Ð¾ÑĢÐ¾ÑĪ"
      ],
      [
        "ÑĪÐ¸",
        "ÑģÑĮ"
      ],
      [
        "ĠÐ´",
        "ÐµÐ½ÑĮ"
      ],
      [
        "ĠÐ½",
        "Ð°Ðº"
      ],
      [
        "Ð¾Ð²",
        "Ð°Ð»"
      ],
      [
        "ÑģÑĤÐ²",
        "Ð°"
      ],
      [
        "ÑģÑĤÐ²",
        "ÐµÐ½"
      ],
      [
        "ĠÐĿ",
        "Ð¸Ðº"
      ],
      [
        "Ð¾ÑģÑĤ",
        "Ð¸"
      ],
      [
        "ĠÐ¶",
        "ÐµÐ»"
      ],
      [
        "ĠÐ¾Ð¿",
        "ÑıÑĤÑĮ"
      ],
      [
        "Ġ",
        "ÑĥÐ¿"
      ],
      [
        "ĠÐ¾Ð´",
        "Ð¸Ð½"
      ],
      [
        "ĠÐ³Ð¾Ð²Ð¾ÑĢ",
        "Ð¸Ð»"
      ],
      [
        "ĠÐµ",
        "ÑģÑĤÑĮ"
      ],
      [
        "ĠÐºÐ¾Ð¼",
        "Ð½Ð°"
      ],
      [
        "ĠÑĤÐµÐ±",
        "Ñı"
      ],
      [
        "ÑģÑĤ",
        "ÑĥÐ¿"
      ],
      [
        "ĠÐ½",
        "Ð¾Ð³"
      ],
      [
        "ĠÐ",
        "¥"
      ],
      [
        "Ð¸Ð»",
        "Ð¾ÑģÑĮ"
      ],
      [
        "!",
        "."
      ],
      [
        "Ð¸ÑĤ",
        "ÑģÑı"
      ],
      [
        "ĠÑģÐ¼",
        "Ð¾ÑĤÑĢ"
      ],
      [
        "ĠÑĤ",
        "Ð¾Ð¼"
      ],
      [
        "ĠÑĥ",
        "Ñģ"
      ],
      [
        "ĠÑģ",
        "Ð¸Ð´"
      ],
      [
        "Ð»",
        "Ðµ"
      ],
      [
        "ÐµÐ½Ð¸",
        "ÐµÐ¼"
      ],
      [
        "Ñı",
        "Ñī"
      ],
      [
        "Ð¸Ð²",
        "ÑĪ"
      ],
      [
        "Ð³",
        "Ð¸Ð½"
      ],
      [
        "Ð¸Ñĩ",
        "ÐµÑģÐº"
      ],
      [
        "ĠÐ¿ÐµÑĢ",
        "Ð²"
      ],
      [
        "Ð½Ñĥ",
        "Ð»Ð°"
      ],
      [
        "ÑģÑĤÑĢ",
        "Ð¾"
      ],
      [
        "ÐµÑĢ",
        "Ð¸"
      ],
      [
        "ĠÐ²",
        "ÑģÑı"
      ],
      [
        "ĠÑįÑĤÐ¾",
        "ÑĤ"
      ],
      [
        "Ð°Ð½",
        "Ð´"
      ],
      [
        "ĠÑĤ",
        "Ð°Ð¼"
      ],
      [
        "Ñı",
        "Ð²"
      ],
      [
        "ĠÐ´",
        "Ð¾Ð»Ð¶"
      ],
      [
        "ĠÐ¿",
        "Ð¾Ð³"
      ],
      [
        "Ð»",
        "Ð¾Ð²"
      ],
      [
        "ĠÐ¼",
        "Ð¸Ð½ÑĥÑĤ"
      ],
      [
        "Ñİ",
        "ÑĤ"
      ],
      [
        "ĠÑĢ",
        "Ð°Ð´"
      ],
      [
        "Ð¸Ð²",
        "Ð°Ñı"
      ],
      [
        "Ñĩ",
        "Ð½Ð¾"
      ],
      [
        "ĠÐ¿ÑĢ",
        "Ð¸Ð²"
      ],
      [
        "ĠÑģÐ¿ÑĢÐ¾Ñģ",
        "Ð¸Ð»"
      ],
      [
        "Ñı",
        "Ð¼"
      ],
      [
        "Ð¼",
        "Ð¾ÑĤÑĢ"
      ],
      [
        "ĠÑĤ",
        "ÑĥÑĤ"
      ],
      [
        "ĠÐĴ",
        "Ð¾ÑĤ"
      ],
      [
        "ĠÐ½Ð°Ð´",
        "Ð¾"
      ],
      [
        "ĠÐ¼",
        "ÑĥÐ¶"
      ],
      [
        "Ð°Ð",
        "³Ð¾"
      ],
      [
        "Ð°ÐµÑĤ",
        "ÑģÑı"
      ],
      [
        "ÑĤÐ¾ÑĢ",
        "Ð¾Ð½"
      ],
      [
        "ĠÑĤÐµÐ±",
        "Ðµ"
      ],
      [
        "ĠÐ»Ð¸ÑĨ",
        "Ð¾"
      ],
      [
        "ĠÑģ",
        "Ð´ÐµÐ»"
      ],
      [
        "ÑĥÐ",
        "¹"
      ],
      [
        "ĠÐ½Ðµ",
        "Ðµ"
      ],
      [
        "Ñĭ",
        "Ð¼Ð¸"
      ],
      [
        "Ñĥ",
        "Ð½"
      ],
      [
        "Ñı",
        "Ð½"
      ],
      [
        "ĠÑĤ",
        "Ð¾Ð¶Ðµ"
      ],
      [
        "ĠÐ¿ÑĢ",
        "Ð¾ÑĤ"
      ],
      [
        "ĠÑĤ",
        "Ð¾Ð»"
      ],
      [
        "Ð¾ÑĢ",
        "Ð¾Ð²"
      ],
      [
        "ÐµÐ½Ð¸",
        "Ð¸"
      ],
      [
        "ĠÐ·",
        "Ð²"
      ],
      [
        "Ñĥ",
        "Ñī"
      ],
      [
        "Ñĩ",
        "Ð¸Ðº"
      ],
      [
        "Ñĩ",
        "Ð¸ÑĤ"
      ],
      [
        "Ð°Ñİ",
        "Ñī"
      ],
      [
        "ÑģÐº",
        "Ð¾Ð¹"
      ],
      [
        "ĠÐ·",
        "Ð°Ð´"
      ],
      [
        "ĠÐ¿Ð¾ÑĤ",
        "Ð¾Ð¼Ñĥ"
      ],
      [
        "ĠÐ¸",
        "Ð½"
      ],
      [
        "Ð½Ð¸",
        "Ðµ"
      ],
      [
        "ĠÐ´",
        "ÐµÐ²"
      ],
      [
        "ĠÑĢ",
        "ÐµÑĪ"
      ],
      [
        "ĠÐ²Ð·",
        "Ð³"
      ],
      [
        "ĠÐ¼Ð¾Ð»",
        "Ð¾Ð´"
      ],
      [
        "ĠÐ¾ÑĤÐ²",
        "ÐµÑĤ"
      ],
      [
        "ÐµÑĢ",
        "ÑĪ"
      ],
      [
        "ĠÐ½Ðµ",
        "ÑģÐº"
      ],
      [
        "ÐµÑĢ",
        "ÐµÐ´"
      ],
      [
        "ĠÐ±Ð¾Ð»ÑĮ",
        "ÑĪ"
      ],
      [
        "ĠÐ¢",
        "Ð°Ðº"
      ],
      [
        "ĠÐ±ÑĥÐ´",
        "ÑĤÐ¾"
      ],
      [
        "ĠÐºÐ½Ñı",
        "Ð·"
      ],
      [
        "Ð¼",
        "Ð°"
      ],
      [
        "Ð¾ÑģÑĤ",
        "ÑĮ"
      ],
      [
        "ĠÐ¿",
        "Ð¾Ð¶"
      ],
      [
        "Ð¸ÑĪ",
        "ÑĮ"
      ],
      [
        "Ñı",
        "ÑģÑĮ"
      ],
      [
        "ĠÐ½",
        "Ð°Ð¼"
      ],
      [
        "\"",
        ","
      ],
      [
        "ÑĤ",
        "Ñĥ"
      ],
      [
        "ĠÐ¢",
        "Ñĭ"
      ],
      [
        "Ñı",
        "Ð¶"
      ],
      [
        "Ð°Ð½Ð¸",
        "Ðµ"
      ],
      [
        "ĠÐ´",
        "ÑĥÑĪ"
      ],
      [
        "ÑģÐº",
        "Ð¾Ð³Ð¾"
      ],
      [
        "ĠÑģ",
        "Ð¾Ð»"
      ],
      [
        "Ð¾Ðº",
        "Ð¾"
      ],
      [
        "ĠÐ²ÑģÐµ",
        "Ñħ"
      ],
      [
        "Ð¿",
        "Ð¾Ð¼"
      ],
      [
        "ĠÐ¼",
        "Ð°Ð»"
      ],
      [
        "ĠÑģ",
        "ÑĤÐ¾ÑĢÐ¾Ð½"
      ],
      [
        "ĠÐ¿ÑĢ",
        "Ð¸Ð½"
      ],
      [
        "ÐµÐ³",
        "Ð´Ð°"
      ],
      [
        "ĠÐ¶",
        "Ð¸Ð²"
      ],
      [
        "ÑĢ",
        "Ð¾Ð¼"
      ],
      [
        "ĠÐ´",
        "Ð¾ÑĢ"
      ],
      [
        "ĠÑģÐ»",
        "ÑĥÑĩ"
      ],
      [
        "ĠÐ½",
        "Ð¸Ñħ"
      ],
      [
        "Ð¸Ð»",
        "Ð¾"
      ],
      [
        "Ð°Ð²",
        "Ð½Ð¾"
      ],
      [
        "Ðµ",
        "ÑģÑı"
      ],
      [
        "ĠÐºÐ¾ÑĤÐ¾ÑĢ",
        "ÑĭÐ¹"
      ],
      [
        "Ð¾Ð²",
        "Ð¾Ð»ÑĮ"
      ],
      [
        "ÐºÐ°",
        "Ñħ"
      ],
      [
        "ÑĢ",
        "ÑĭÐ²"
      ],
      [
        "Ġ",
        "ÑĥÐ·"
      ],
      [
        "Ð¸",
        "ÑģÑĮ"
      ],
      [
        "ÑĢÐ°",
        "ÑĦ"
      ],
      [
        "Ð¾Ð²",
        "Ð°ÑĢ"
      ],
      [
        "ĠÐĲ",
        "Ð»ÐµÐº"
      ],
      [
        "ĠÐ²Ñĭ",
        "Ñģ"
      ],
      [
        "Ð³Ð¾",
        "ÑĢ"
      ],
      [
        "ÐµÐ½",
        "Ð½ÑĭÐ¹"
      ],
      [
        "Ð°Ðº",
        "Ð¾Ð¼"
      ],
      [
        "Ð½",
        "ÑĮ"
      ],
      [
        "Ð²",
        "Ð°ÑĢ"
      ],
      [
        "Ð°Ð½Ð¸",
        "Ñı"
      ],
      [
        "ĠÑģÐ²Ð¾",
        "ÐµÐ¹"
      ],
      [
        "ĠÐ²",
        "ÐµÑģ"
      ],
      [
        "ĠÐ½",
        "Ð¾Ñĩ"
      ],
      [
        "Ðµ",
        "Ñİ"
      ],
      [
        "ĠÐ¸Ð·",
        "Ð²"
      ],
      [
        "ÑĨ",
        "Ñĥ"
      ],
      [
        "ĠÐº",
        "ÑĤÐ¾"
      ],
      [
        "ĠÐ±",
        "Ð¾Ð³"
      ],
      [
        "ĠÐ´",
        "Ð¾Ð»"
      ],
      [
        "Ñı",
        "Ñģ"
      ],
      [
        "ÑĢ",
        "Ð°Ð¶"
      ],
      [
        "ĠÑįÑĤ",
        "Ð¾Ð¼"
      ],
      [
        "Ð°Ðº",
        "Ð¸"
      ],
      [
        "ĠÑģ",
        "Ð¾Ñģ"
      ],
      [
        "ĠÐ¿ÑĢÐ¾Ð´",
        "Ð¾Ð»Ð¶"
      ],
      [
        "Ð½",
        "Ñİ"
      ],
      [
        "ĠÐ½Ðµ",
        "Ñģ"
      ],
      [
        "Ñĭ",
        "Ñĩ"
      ],
      [
        "ĠÐ·",
        "Ð°Ð³"
      ],
      [
        "ĠÑĢÐ°Ð·",
        "Ð³"
      ],
      [
        "ĠÐ¿Ð¾ÑĤ",
        "Ð¾Ð¼"
      ],
      [
        "Ð²",
        "Ð°ÑĤ"
      ],
      [
        "ĠÐĿ",
        "ÐµÑĤ"
      ],
      [
        "ĠÐĵ",
        "ÑĢÐ¸"
      ],
      [
        "Ð¾Ðº",
        "Ð¾Ð¹"
      ],
      [
        "ĠÐ²",
        "ÐµÐ»"
      ],
      [
        "ĠÑĩ",
        "ÐµÐ³Ð¾"
      ],
      [
        "ĠÑĢÑĥ",
        "ÐºÐ¸"
      ],
      [
        "ĠÑħ",
        "Ð¾Ñĩ"
      ],
      [
        "Ð¾ÑĪ",
        "ÐµÐ»"
      ],
      [
        "ĠÐ´ÐµÐ»",
        "Ð¾"
      ],
      [
        "Ð»",
        "Ð¾Ð½"
      ],
      [
        "ĠÑģÐ²Ð¾",
        "Ñİ"
      ],
      [
        "ÑĢ",
        "Ð¾Ð½"
      ],
      [
        "Ñĭ",
        "Ðº"
      ],
      [
        "ĠÑĤ",
        "Ð¸Ñħ"
      ],
      [
        "ÑĤ",
        "ÐµÑĢ"
      ],
      [
        "Ðµ",
        "ÑģÑĮ"
      ],
      [
        "Ġ",
        "Ñī"
      ],
      [
        "ĠÐ½ÐµÑģÐº",
        "Ð¾Ð»ÑĮÐºÐ¾"
      ],
      [
        "ĠÐ´",
        "ÐµÑĢ"
      ],
      [
        "Ð¸Ð¼",
        "Ð¾"
      ],
      [
        "ÐµÑĤ",
        "Ð°"
      ],
      [
        "ĠÑĢÑĥ",
        "ÐºÑĥ"
      ],
      [
        "ĠÐ¾Ñģ",
        "Ð¾Ð±"
      ],
      [
        "ĠÑĢÐ°Ñģ",
        "ÑģÐº"
      ],
      [
        "ĠÐ±Ð¾Ð»",
        "ÐµÐµ"
      ],
      [
        "ĠÐ³",
        "Ð»ÑıÐ´"
      ],
      [
        "ĠÑģÐ»",
        "ÑĭÑĪ"
      ],
      [
        "ĠÐ¿",
        "Ð°ÑĢ"
      ],
      [
        "ĠÐ½",
        "Ð¾Ð²"
      ],
      [
        "ĠÐ²Ñģ",
        "ÐµÐ³Ð´Ð°"
      ],
      [
        "Ð¶",
        "Ðµ"
      ],
      [
        "ÐµÑģÑĤ",
        "Ðµ"
      ],
      [
        "ĠÑģ",
        "Ñĭ"
      ],
      [
        "Ð½",
        "Ð¾Ð¼Ñĥ"
      ],
      [
        "Ð°Ð¹",
        "ÑĤÐµ"
      ],
      [
        "ĠÑģÐ»",
        "Ð¾Ð²Ð°"
      ],
      [
        "ĠÐ»",
        "ÑĥÑĩ"
      ],
      [
        "ĠÐ±",
        "ÐµÐ»"
      ],
      [
        "Ð¾Ð»",
        "Ð¾Ð´"
      ],
      [
        "ĠÐ¼",
        "Ð¾Ð¹"
      ],
      [
        "Ð¸Ð²",
        "Ð°Ð»"
      ],
      [
        "ĠÐ¿Ð¾ÑģÐ»",
        "Ðµ"
      ],
      [
        "ĠÐ²",
        "ÐµÑĩ"
      ],
      [
        "ĠÑģÐºÐ°Ð·",
        "Ð°ÑĤÑĮ"
      ],
      [
        "ÐµÐ¶",
        "Ð´Ñĥ"
      ],
      [
        "ÐµÐ½",
        "Ð°"
      ],
      [
        "ĠÐĺÐ²",
        "Ð°Ð½Ð¾Ð²"
      ],
      [
        "Ð¸",
        "Ñī"
      ],
      [
        "ĠÐ²",
        "ÑģÑĤÑĢ"
      ],
      [
        "Ð»Ð¸",
        "ÑģÑĮ"
      ],
      [
        "ĠÐ¿Ð¾Ð½",
        "Ð¸Ð¼"
      ],
      [
        "ĠÐ·",
        "Ð°ÑĤ"
      ],
      [
        "ĠÑĤ",
        "Ð¾Ð³Ð´Ð°"
      ],
      [
        "ĠÐ½",
        "ÑĥÐ¶"
      ],
      [
        "ĠÐ·",
        "Ð°Ñģ"
      ],
      [
        "ĠÐ²",
        "ÐµÐ´ÑĮ"
      ],
      [
        "ĠÐ¸",
        "ÑģÐº"
      ],
      [
        "Ð°Ð½",
        "ÑĤ"
      ],
      [
        "ĠÑĢÐ°Ñģ",
        "Ð¿"
      ],
      [
        "ĠÐ»",
        "ÐµÑĤ"
      ],
      [
        "Ð¸Ð½",
        "Ð¾Ð²"
      ],
      [
        "ÐµÑĢ",
        "ÑĤ"
      ],
      [
        "ĠÑģ",
        "Ð½"
      ],
      [
        "ĠÐ½",
        "Ð°Ð·"
      ],
      [
        "ĠÑĥ",
        "Ðº"
      ],
      [
        "ĠÐ·",
        "ÐµÐ¼"
      ],
      [
        "ĠÐ·Ð½Ð°",
        "Ñİ"
      ],
      [
        "âĢ",
        "¦"
      ],
      [
        "ĠÐ¿",
        "Ð¾Ð±"
      ],
      [
        "ĠÑĢ",
        "Ð°Ð±"
      ],
      [
        "ĠÐ",
        "¨"
      ],
      [
        "Ð¸",
        "Ð½Ñĭ"
      ],
      [
        "ĠÐ¡Ð°Ð¼",
        "Ð³Ð¸Ð½"
      ],
      [
        "ĠÑģÐ¾Ð²",
        "ÐµÑĢÑĪ"
      ],
      [
        "ĠÐ½",
        "Ð°Ð²"
      ],
      [
        "ĠÑįÑĤ",
        "Ð¸"
      ],
      [
        "Ð¸Ð½",
        "Ðµ"
      ],
      [
        "ĠÐ¶ÐµÐ½",
        "Ñī"
      ],
      [
        "ĠÐ¾",
        "ÑģÑĤÐ°Ð²"
      ],
      [
        "Ð°",
        "Ð½Ð°"
      ],
      [
        "ĠÐºÐ¾ÑĤÐ¾ÑĢ",
        "ÑĭÐµ"
      ],
      [
        "Ð½Ð¾",
        "Ñİ"
      ],
      [
        "ĠÐ³Ð¾",
        "ÑģÐ¿"
      ],
      [
        "ĠÐ¿Ð¾ÑģÐ»",
        "ÐµÐ´"
      ],
      [
        "Ð»",
        "Ð°Ñģ"
      ],
      [
        "ĠÐ½",
        "ÐµÐ±"
      ],
      [
        "ĠÐ²Ñģ",
        "ÐµÐ¼"
      ],
      [
        "ĠÑĥÐ²",
        "Ð¸Ð´"
      ],
      [
        "ĠÐ¾ÑĤÐ²",
        "ÐµÑĩ"
      ],
      [
        "ĠÐ±",
        "Ð°ÑĢ"
      ],
      [
        "ĠÑĢ",
        "Ð¾Ð´"
      ],
      [
        "Ð½Ð¸",
        "Ñĩ"
      ],
      [
        "ĠÐ¼",
        "Ð°ÑĤ"
      ],
      [
        "ĠÐ²Ñģ",
        "Ñĳ"
      ],
      [
        "Ð²",
        "Ð¾ÑĢ"
      ],
      [
        "Ð¾Ð½",
        "ÐµÑĨ"
      ],
      [
        "Ñģ",
        "ÐµÐ¼"
      ],
      [
        "Ð¾",
        "Ñī"
      ],
      [
        "ĠÐ±",
        "ÑĢ"
      ],
      [
        "ĠÐ²",
        "Ð¾Ð¿"
      ],
      [
        "Ð»Ð¸Ð²",
        "Ð¾"
      ],
      [
        "ĠÐ»",
        "ÐµÐ³"
      ],
      [
        "Ð¸",
        "Ñİ"
      ],
      [
        "ĠÐ±Ð¾Ð»ÑĮ",
        "ÑĪÐµ"
      ],
      [
        "ĠÐ¿ÑĢ",
        "Ð¸Ðº"
      ],
      [
        "ĠÑħÐ¾ÑĤ",
        "ÐµÐ»"
      ],
      [
        "ĠÐºÐ°Ðº",
        "Ð¾Ð¹"
      ],
      [
        "ÑĪ",
        "Ð¸Ð¹"
      ],
      [
        "ĠÐ³Ð¾Ð»Ð¾Ð²",
        "Ñĥ"
      ],
      [
        "ÐµÐ»",
        "Ñı"
      ],
      [
        "ĠÐ¿ÑĢÐ¸",
        "Ð±"
      ],
      [
        "Ñĥ",
        "ÑģÐº"
      ],
      [
        "ĠÐĴ",
        "ÑģÐµ"
      ],
      [
        "ÑĢÐ°",
        "Ñī"
      ],
      [
        "ĠÐ¸",
        "Ñģ"
      ],
      [
        "Ð½Ñĥ",
        "ÑĤÑĮ"
      ],
      [
        "ĠÑĢÐ°Ñģ",
        "Ñģ"
      ],
      [
        "ĠÐĲÐ½",
        "Ð´ÑĢ"
      ],
      [
        "ĠÑĢÐ°Ð·",
        "Ð²"
      ],
      [
        "Ð³",
        "Ð¸"
      ],
      [
        "ĠÐ´Ð¾ÑĢ",
        "Ð¾Ð³"
      ],
      [
        "Ñĩ",
        "Ð¸Ð²"
      ],
      [
        "ĠÐ¸",
        "Ð´"
      ],
      [
        "ĠÐ³",
        "ÑĥÐ±"
      ],
      [
        "ĠÐĿÐ¸Ðº",
        "Ð¾Ð»"
      ],
      [
        "ĠÐ¿Ð¾Ð´",
        "ÑĥÐ¼"
      ],
      [
        "ĠÑģÐ»",
        "ÐµÐ´"
      ],
      [
        "ĠÐ¼",
        "Ð½Ð¾Ð³Ð¾"
      ],
      [
        "ĠÐ¿Ð¾Ñĩ",
        "ÑĤÐ¸"
      ],
      [
        "Ð°Ð´",
        "ÑĨ"
      ],
      [
        "ĠÑģÑĤ",
        "Ð°Ð»"
      ],
      [
        "ĠÑĩÐµÑĢ",
        "ÐµÐ·"
      ],
      [
        "ĠÐ·Ð°Ð¼",
        "ÐµÑĤ"
      ],
      [
        "ÐµÑĤ",
        "Ñĭ"
      ],
      [
        "â",
        "ķ"
      ],
      [
        "âķ",
        "ķ"
      ],
      [
        "Ñĩ",
        "Ð°ÑģÑĤ"
      ],
      [
        "Ð²",
        "Ð¾"
      ],
      [
        "Ñ",
        "į"
      ],
      [
        "Ð»",
        "ÑĮ"
      ],
      [
        "ĠÐ¾Ð±",
        "ÑĬ"
      ],
      [
        "ĠÐµ",
        "Ð´"
      ],
      [
        "Ð¾Ð¶",
        "Ð´"
      ],
      [
        "ĠÐ±",
        "ÑĢÐ°ÑĤ"
      ],
      [
        "ÑģÑĤÐ²",
        "ÐµÐ½Ð½Ð¾"
      ],
      [
        "ĠÑĥ",
        "ÑĤ"
      ],
      [
        "ĠÐ²",
        "Ð¼"
      ],
      [
        "ĠÐ¼",
        "Ð¸Ð»"
      ],
      [
        "Ñĭ",
        "Ð´"
      ],
      [
        "ĠÐ¾",
        "Ð¶"
      ],
      [
        "ĠÐ¸",
        "Ð³"
      ],
      [
        "ÐµÐº",
        "Ð¾"
      ],
      [
        "Ñĩ",
        "Ðµ"
      ],
      [
        "ĠÐ»ÑİÐ´",
        "ÐµÐ¹"
      ],
      [
        "ĠÑģÐº",
        "Ð¾ÑĢ"
      ],
      [
        "ĠÐĲÐ»ÐµÐº",
        "Ñģ"
      ],
      [
        "ÐµÐ¹",
        "ÑĩÐ°Ñģ"
      ],
      [
        "ĠÐ´",
        "Ð¾Ð±ÑĢ"
      ],
      [
        "ĠÐŀ",
        "ÑĤ"
      ],
      [
        "ÑĥÑĪ",
        "ÐºÐ°"
      ],
      [
        "ĠÐ¶Ð¸Ð·",
        "Ð½Ð¸"
      ],
      [
        "ĠÑĥ",
        "ÑģÐ¿"
      ],
      [
        "Ñİ",
        "Ð±"
      ],
      [
        "Ðº",
        "Ð°Ñı"
      ],
      [
        "ĠÐ¿Ð¾Ð»",
        "Ð¾Ð¶"
      ],
      [
        "Ð´Ðµ",
        "ÑģÑĮ"
      ],
      [
        "ĠÐ¼",
        "Ð½"
      ],
      [
        "ĠÐ²Ñĭ",
        "Ð¿"
      ],
      [
        "ĠÐ´Ð²",
        "Ð°"
      ],
      [
        "Ð½Ñı",
        "Ð»"
      ],
      [
        "Ð½Ð¸",
        "Ð¹"
      ],
      [
        "ĠÐ¿ÑĢ",
        "Ð¾ÑĪ"
      ],
      [
        "Ġ",
        "ÑĤÐ¾ÑĢ"
      ],
      [
        "ĠÑħ",
        "Ð¾Ð´"
      ],
      [
        "ĠÐ¿ÑĢ",
        "ÐµÐ¶"
      ],
      [
        "Ð°",
        "ÐµÐ¼"
      ],
      [
        "ĠÐ¿ÑĢ",
        "Ð¾ÑģÑĤ"
      ],
      [
        "ĠÐ¼",
        "ÐµÐ¶Ð´Ñĥ"
      ],
      [
        "ĠÑģÐ¾Ð²",
        "ÑģÐµÐ¼"
      ],
      [
        "Ð¾Ð¹",
        "Ð´"
      ],
      [
        "ÐµÑģÑĤ",
        "ÑĮ"
      ],
      [
        "Ð¼",
        "Ðµ"
      ],
      [
        "!",
        "\""
      ],
      [
        "ÐµÐ¹",
        "ÑģÑĤÐ²"
      ],
      [
        "ĠÑģÐ²",
        "ÐµÑĤ"
      ],
      [
        "ĠÐ´ÑĢÑĥÐ³",
        "Ð¾Ð¹"
      ],
      [
        "ĠÐ²",
        "Ð¾ÑĢ"
      ],
      [
        "ĠÑĤÐ¾",
        "ÑĩÐ½Ð¾"
      ],
      [
        "ĠÐ¿ÑĢ",
        "Ð¸Ð´"
      ],
      [
        "Ñĥ",
        "ÑĤÑĮ"
      ],
      [
        "Ð¸",
        "Ð¿"
      ],
      [
        "ĠÑģÑĤ",
        "ÑĢÐ°Ð½"
      ],
      [
        "ĠÐ²",
        "ÑģÐº"
      ],
      [
        "ĠÐ²",
        "ÐµÑģÑĮ"
      ],
      [
        "ĠÐ´",
        "ÐµÑĤ"
      ],
      [
        "ÑĤÐ¾",
        "Ñĩ"
      ],
      [
        "ĠÐº",
        "Ð°Ð¶Ð´"
      ],
      [
        "ĠÐ¿Ð¾",
        "Ñħ"
      ],
      [
        "ĠÐ»ÑİÐ´",
        "Ð¸"
      ],
      [
        "ĠÐ²",
        "Ð¾Ð´"
      ],
      [
        "ĠÐ¼Ð¾Ð¶",
        "Ð½Ð¾"
      ],
      [
        "Ð¾Ð·",
        "Ñı"
      ],
      [
        "ÑĢ",
        "Ð¾Ñĩ"
      ],
      [
        "ÐµÑĢ",
        "Ð²"
      ],
      [
        "Ð²",
        "ÐµÑĤ"
      ],
      [
        "ÑĪ",
        "ÑĮ"
      ],
      [
        "ĠÐ±Ñĭ",
        "Ð²"
      ],
      [
        "ĠÐ²Ð¾Ð¿",
        "ÑĢÐ¾Ñģ"
      ],
      [
        "ĠÑĥÐ´",
        "Ð¸Ð²"
      ],
      [
        "ĠÑģÐ²Ð¾",
        "ÐµÐ³Ð¾"
      ],
      [
        "ĠÐł",
        "Ð°Ð·"
      ],
      [
        "ĠÐ±ÐµÑģ",
        "Ð¿"
      ],
      [
        "Ð¾",
        "ÑĤÑĮ"
      ],
      [
        "ĠÐ¿ÑĢ",
        "Ð¾Ð³"
      ],
      [
        "ÐµÐ½",
        "ÑĤ"
      ],
      [
        "ĠÑįÑĤ",
        "Ð¾Ð¹"
      ],
      [
        "Ð½Ð¸",
        "Ñı"
      ],
      [
        "ÑĢ",
        "ÑĥÐ¶"
      ],
      [
        "ĠÐļ",
        "Ð»Ð¸"
      ],
      [
        "ĠÐ°",
        "ÑĢ"
      ],
      [
        "ĠÑģÐº",
        "Ð°Ð¶"
      ],
      [
        "ĠÑĥÐ¶",
        "Ð°Ñģ"
      ],
      [
        "ĠÐ´ÐµÑĢ",
        "ÐµÐ²"
      ],
      [
        "ÐµÐ²",
        "Ð¸Ñĩ"
      ],
      [
        "ĠÐ¶",
        "Ð°Ð»"
      ],
      [
        "ĠÐºÑĢ",
        "Ð¸Ðº"
      ],
      [
        "Ð¾Ð²",
        "Ð°ÑĤÑĮ"
      ],
      [
        "Ð¾ÑĪ",
        "Ð°Ð´"
      ],
      [
        "ÑıÑĤ",
        "Ð½Ð¾"
      ],
      [
        "Ñı",
        "Ð³"
      ],
      [
        "ĠÐ´",
        "Ð¾Ðº"
      ],
      [
        "ÑĨ",
        "ÐµÐ²"
      ],
      [
        "ĠÐ¿ÑĢÐ¾",
        "Ð¸Ð·"
      ],
      [
        "ĠÐ¾ÑĤ",
        "Ð´"
      ],
      [
        "ĠÐĴ",
        "Ð°ÑĢ"
      ],
      [
        "ĠÐ²Ñģ",
        "ÐµÐ³Ð¾"
      ],
      [
        "ÐºÐ¸",
        "Ðµ"
      ],
      [
        "ĠÐ¾ÑģÑĤ",
        "Ð°Ð½Ð¾Ð²"
      ],
      [
        "Ð¸",
        "Ð±"
      ],
      [
        "ĠÐ´",
        "Ð¾ÑģÑĤ"
      ],
      [
        "ĠÐ²Ð·",
        "Ð´"
      ],
      [
        "ĠÐ",
        "ĸ"
      ],
      [
        "ĠÐ¿ÑĢÐ¾ÑĤ",
        "Ð¸Ð²"
      ],
      [
        "Ð",
        "Ŀ"
      ],
      [
        "Ð¾Ð²Ð¾ÑĢ",
        "Ð¸Ð»"
      ],
      [
        "ĠÑģÑĤ",
        "ÑĢÐ°"
      ],
      [
        "ĠÐŀ",
        "Ð´"
      ],
      [
        "Ñħ",
        "Ð²Ð°ÑĤ"
      ],
      [
        "ĠÐ¿ÑĢ",
        "Ð¾Ð²"
      ],
      [
        "Ð»Ð¸",
        "Ð½"
      ],
      [
        "Ð¾Ð¶",
        "Ð½Ð¾"
      ],
      [
        "Ñĥ",
        "ÐµÑĤ"
      ],
      [
        "Ñı",
        "Ð»Ð°"
      ],
      [
        "ĠÑĤ",
        "ÑıÐ¶"
      ],
      [
        "Ð»",
        "ÐµÐ½Ð½Ð¾"
      ],
      [
        "ÑĢÐ°Ð½",
        "ÑĨ"
      ],
      [
        "ĠÑĪ",
        "Ð°Ð³"
      ],
      [
        "Ð½",
        "ÐµÐ²"
      ],
      [
        "ĠÐ½",
        "ÐµÐ¼Ñĥ"
      ],
      [
        "ÐµÑĩ",
        "Ð½Ð¾"
      ],
      [
        "ĠÑģÐ»",
        "ÑĥÑĪ"
      ],
      [
        "ĠÐ¿Ð»",
        "ÐµÑĩ"
      ],
      [
        "ĠÐ³Ð¾ÑĢ",
        "Ð¾Ð´"
      ],
      [
        "Ð¾Ð½",
        "Ð¾Ð²"
      ],
      [
        "ÐµÑģÑĤ",
        "Ð¸"
      ],
      [
        "ÑıÐ»",
        "ÑģÑı"
      ],
      [
        "ĠÑħÐ¾ÑĢÐ¾ÑĪ",
        "Ð¾"
      ],
      [
        "Ð½Ð¸",
        "ÐºÐ°"
      ],
      [
        "ĠÐ±",
        "Ð»Ð¸"
      ],
      [
        "ÑĪ",
        "Ð»Ð°"
      ],
      [
        "ĠÐ½Ð¸Ðº",
        "Ð¾Ð³Ð´Ð°"
      ],
      [
        "ĠÑģ",
        "ÐµÐ¹ÑĩÐ°Ñģ"
      ],
      [
        "ĠÐ±",
        "Ð¾ÑĢ"
      ],
      [
        "ĠÐ´Ð²",
        "Ð¾ÑĢ"
      ],
      [
        "ÐµÐ½Ð¸",
        "Ð¹"
      ],
      [
        "ĠÐ²",
        "ÑĬ"
      ],
      [
        "ĠÑĤ",
        "Ð¾Ð½"
      ],
      [
        "ĠÐ¿Ð¾Ðº",
        "Ð°Ð·"
      ],
      [
        "ÐµÐ½",
        "Ð½ÑĭÐµ"
      ],
      [
        "ÐµÐ½",
        "Ñĭ"
      ],
      [
        "ĠÑĥ",
        "Ñĩ"
      ],
      [
        "ĠÐ¿",
        "Ð°Ð»ÑĮ"
      ],
      [
        "ĠÑħÐ¾ÑĤ",
        "Ñı"
      ],
      [
        "ÐµÑĢ",
        "Ð³"
      ],
      [
        "ÑĢ",
        "Ð¸Ñĩ"
      ],
      [
        "ĠÑĤÐ°Ðº",
        "Ð¾Ð¹"
      ],
      [
        "Ðº",
        "Ð²"
      ],
      [
        "ĠÐ³Ð¾Ð²Ð¾ÑĢ",
        "Ð¸ÑĤÑĮ"
      ],
      [
        "ĠÐ·",
        "Ð´ÐµÑģÑĮ"
      ],
      [
        "ĠÐº",
        "Ð½Ð¸"
      ],
      [
        "ĠÑįÑĤ",
        "Ñĥ"
      ],
      [
        "ĠÐºÐ½ÑıÐ·",
        "ÑĮ"
      ],
      [
        "ĠÐ¶Ð¸Ð·",
        "Ð½ÑĮ"
      ],
      [
        "ĠÐ»",
        "Ð¾ÑĪÐ°Ð´"
      ],
      [
        "Ð¸",
        "Ð½Ð¸"
      ],
      [
        "ĠÐ¼Ð°Ð»",
        "ÐµÐ½ÑĮ"
      ],
      [
        "ĠÑģ",
        "Ð¸Ð»"
      ],
      [
        "ĠÐ¿Ð¾",
        "ÑģÑĤ"
      ],
      [
        "ÑĢ",
        "Ð¾"
      ],
      [
        "Ð·",
        "Ñı"
      ],
      [
        "ĠÐ»",
        "ÐµÐ¶"
      ],
      [
        "ÑĮ",
        "Ðµ"
      ],
      [
        "ĠÐ¼Ð¸Ð½ÑĥÑĤ",
        "Ñĥ"
      ],
      [
        "ĠÐ±",
        "ÑĢÐ¾Ñģ"
      ],
      [
        "ĠÐŁ",
        "Ð¾"
      ],
      [
        "ĠÐ³Ð¾Ð²Ð¾ÑĢ",
        "Ð¸ÑĤ"
      ],
      [
        "ÐµÐ½",
        "Ð½Ð¾Ð¹"
      ],
      [
        "Ð°ÑĪ",
        "Ð°"
      ],
      [
        "Ð¿",
        "Ð¾Ð´"
      ],
      [
        "ÑĦ",
        "Ð¸ÑĨ"
      ],
      [
        "ĠÐ³Ð»Ð°Ð·",
        "Ð°Ð¼Ð¸"
      ],
      [
        "Ð½Ð¸",
        "ÐºÐ¾Ð²"
      ],
      [
        "ĠÑģÐ²Ð¾",
        "Ð¸"
      ],
      [
        "Ðµ",
        "Ñı"
      ],
      [
        "ÑĥÐ¶",
        "Ð´"
      ],
      [
        "ĠÑħ",
        "Ð¾Ð·Ñı"
      ],
      [
        "ĠÐĵÑĢÐ¸",
        "Ð³Ð¾ÑĢ"
      ],
      [
        "Ð»",
        "ÐµÐ´"
      ],
      [
        "Ñİ",
        "Ñī"
      ],
      [
        "ĠÐ²Ñģ",
        "Ð¿Ð¾Ð¼"
      ],
      [
        "ÐµÐ³",
        "Ð¾Ð´"
      ],
      [
        "ĠÑģ",
        "ÐµÐ¼"
      ],
      [
        "ĠÐ¼",
        "ÐµÐ´"
      ],
      [
        "ĠÑģ",
        "Ð°Ð´"
      ],
      [
        "Ð²",
        "Ð¾Ð»"
      ],
      [
        "ĠÑĢÐ°Ð·Ð³",
        "Ð¾Ð²Ð¾ÑĢ"
      ],
      [
        "ĠÐ½Ðµ",
        "Ð¾Ð±"
      ],
      [
        "ĠÑĩÐµÐ»Ð¾Ð²ÐµÐº",
        "Ð°"
      ],
      [
        "ĠÐ¾ÑĤ",
        "Ð¿"
      ],
      [
        "Ð°Ð¶",
        "ÐµÑĤÑģÑı"
      ],
      [
        "Ð¸Ð½",
        "Ð¾Ð¹"
      ],
      [
        "ĠÐĲ",
        "ÑĢ"
      ],
      [
        "ĠÐĿ",
        "Ð°ÑĤ"
      ],
      [
        "ÐµÐ½Ð¸",
        "Ñİ"
      ],
      [
        "ÐµÐ¶",
        "Ð´"
      ],
      [
        "Ñı",
        "Ñħ"
      ],
      [
        "ĠÑı",
        "Ð²"
      ],
      [
        "ĠÑģÐ²Ð¾",
        "Ðµ"
      ],
      [
        "ÑĢ",
        "ÐµÐ·"
      ],
      [
        "ÑģÑĤ",
        "Ð°"
      ],
      [
        "ĠÐĺ",
        "Ð·"
      ],
      [
        "ĠÐ¿ÑĢÐµÐ´",
        "ÑģÑĤÐ°Ð²"
      ],
      [
        "ÑģÑĤ",
        "Ð°Ð»"
      ],
      [
        "ÐµÐ½",
        "Ð¾"
      ],
      [
        "Ð½",
        "Ð°Ðº"
      ],
      [
        "ĠÑģÐ¾Ð²ÐµÑĢÑĪ",
        "ÐµÐ½Ð½Ð¾"
      ],
      [
        "Ð¼",
        "Ð¾"
      ],
      [
        "ĠÐ¼Ð¾Ð³",
        "Ñĥ"
      ],
      [
        "ÑģÐº",
        "Ð¸Ñħ"
      ],
      [
        "ĠÐ¼Ð¾Ð»",
        "Ñĩ"
      ],
      [
        "ĠÐ½Ð°Ðº",
        "Ð¾Ð½ÐµÑĨ"
      ],
      [
        "ĠÐ²ÐµÑĩ",
        "ÐµÑĢ"
      ],
      [
        "Ð¾Ð½",
        "Ð°"
      ],
      [
        "ĠÐŁ",
        "Ð°Ð²"
      ],
      [
        "ĠÑĥ",
        "Ð»Ð¸"
      ],
      [
        "ĠÑĤÐ¾ÑĤ",
        "ÑĩÐ°Ñģ"
      ],
      [
        "ĠÐ´Ð²",
        "ÐµÑĢÑĮ"
      ],
      [
        "ĠÑĢÐ°Ð±",
        "Ð¾ÑĤ"
      ],
      [
        "ĠÐ¿",
        "Ð¸ÑģÑĮ"
      ],
      [
        "ĠÐ·",
        "Ð»"
      ],
      [
        "Ð°ÐµÑĤ",
        "Ðµ"
      ],
      [
        "Ðº",
        "Ð¸Ð¼"
      ],
      [
        "ÑĭÐ²",
        "Ð°Ñı"
      ],
      [
        "ĠÐ´ÑĥÐ¼",
        "Ð°Ð»"
      ],
      [
        "ÑĭÐ²",
        "Ð°Ð»"
      ],
      [
        "ĠÐ·",
        "Ð°ÑĢ"
      ],
      [
        "ÐµÐ»ÑĮ",
        "Ð·Ñı"
      ],
      [
        "ĠÐ¿Ð¾Ð¶",
        "Ð°Ð»"
      ],
      [
        "Ð»Ñİ",
        "Ð´"
      ],
      [
        "ÐµÐ·",
        "Ð´"
      ],
      [
        "ĠÐŁ",
        "Ð¾Ð´"
      ],
      [
        "ĠÐ²Ð¸Ð´",
        "ÐµÐ»"
      ],
      [
        ")",
        ","
      ],
      [
        "Ð½Ñĥ",
        "ÑĤ"
      ],
      [
        "ĠÑĤ",
        "ÑĢÐ¸"
      ],
      [
        "ĠÐ¤",
        "ÐµÐ´"
      ],
      [
        "ÐµÐ·",
        "Ð¶"
      ],
      [
        "ĠÐ²Ð¾Ñģ",
        "Ðº"
      ],
      [
        "ĠÐ³",
        "Ð¾Ð´"
      ],
      [
        "Ð»Ñı",
        "Ð»"
      ],
      [
        "ĠÑģ",
        "Ð¾Ð³"
      ],
      [
        "ĠÐļ",
        "Ð¾Ð³Ð´Ð°"
      ],
      [
        "Ð»",
        "ÐµÑĤ"
      ],
      [
        "ĠÐŁ",
        "ÑĮ"
      ],
      [
        "ĠÐ³Ð¾ÑģÐ¿",
        "Ð¾Ð´"
      ],
      [
        "ĠÑģÑĤ",
        "ÑĢÐ°ÑĪ"
      ],
      [
        "ĠÐ¿ÑĢ",
        "ÑıÐ¼"
      ],
      [
        "ĠÑģ",
        "Ð¸Ð»ÑĮ"
      ],
      [
        "ĠÐ¿ÑĢ",
        "Ð¸Ñħ"
      ],
      [
        "ĠÐ»ÑĥÑĩ",
        "ÑĪÐµ"
      ],
      [
        "Ð°",
        "ÐµÑĪÑĮ"
      ],
      [
        "ĠÐ±Ð»",
        "Ð°Ð³"
      ],
      [
        "ĠÐ±",
        "ÐµÐ´"
      ],
      [
        "ĠÐ¾Ð±",
        "ÑĢÐ°Ð·"
      ],
      [
        "ĠÐ´",
        "ÐµÐ¹ÑģÑĤÐ²"
      ],
      [
        "ĠÐ´",
        "Ð°Ð²"
      ],
      [
        "ĠÑģÐ»",
        "ÐµÐ·"
      ],
      [
        "Ð¾ÑĤ",
        "Ð¾Ð¼"
      ],
      [
        "ÐµÐ½",
        "ÐµÑĢ"
      ],
      [
        "ĠÐ½Ð°Ñĩ",
        "Ð°Ð»"
      ],
      [
        "ĠÐ¼",
        "Ð°ÑĤÑĮ"
      ],
      [
        "Ð½",
        "Ð¸Ð»"
      ],
      [
        "ĠÐ±",
        "Ð¾"
      ],
      [
        "ĠÐ´",
        "ÐµÑĢÐ¶"
      ],
      [
        "Ñĥ",
        "ÑīÐµ"
      ],
      [
        "ĠÐºÐ°Ð·",
        "Ð°Ð»Ð¾ÑģÑĮ"
      ],
      [
        "Ð¸Ð²",
        "Ð°ÑĤÑĮ"
      ],
      [
        "Ð²",
        "Ð°"
      ],
      [
        "ĠÐ¿Ð¾Ð»",
        "ÑĥÑĩ"
      ],
      [
        "ĠÐ¿ÑĢ",
        "Ð¾Ñĩ"
      ],
      [
        "Ð»",
        "Ð¾Ð¶"
      ],
      [
        "Ð¸",
        "ÑģÐº"
      ],
      [
        "ĠÐ²Ð·Ð³",
        "Ð»Ñı"
      ],
      [
        "ÐµÑģ",
        "ÑĤÐ¾"
      ],
      [
        "?",
        "\""
      ],
      [
        "ĠÐ´",
        "Ð¾Ñģ"
      ],
      [
        "ĠÐ¿ÑĢÐ¸",
        "Ð·"
      ],
      [
        "ÐµÑħ",
        "Ð°Ð»"
      ],
      [
        "ĠÐ³",
        "ÑĢÐ°ÑĦ"
      ],
      [
        "Ð¾Ð±ÑĢ",
        "Ð°Ð·"
      ],
      [
        "ĠÐ¾Ð±",
        "ÑĢÐ°ÑĤ"
      ],
      [
        "ĠÐľ",
        "Ñĭ"
      ],
      [
        "ĠÐ½Ð¸Ðº",
        "Ð°Ðº"
      ],
      [
        "ĠÐº",
        "ÑĥÐ´Ð°"
      ],
      [
        "Ð½Ð°",
        "Ñĩ"
      ],
      [
        "Ð°ÑĢ",
        "Ð¾Ð²"
      ],
      [
        "ĠÑħ",
        "Ð»"
      ],
      [
        "Ðº",
        "Ð½ÑĥÐ»"
      ],
      [
        "ĠÐ¾ÑģÐ¾Ð±",
        "ÐµÐ½Ð½Ð¾"
      ],
      [
        "ĠÑĩ",
        "Ð¸ÑĤ"
      ],
      [
        "Ð°ÑĤÐµÐ»ÑĮ",
        "Ð½Ð¾"
      ],
      [
        "ÑĢ",
        "Ð°Ð´"
      ],
      [
        "ĠÐ´Ð¾Ð¼",
        "Ð°"
      ],
      [
        "ÐµÐ²",
        "Ð½Ð°"
      ],
      [
        "ĠÐ²Ñģ",
        "Ñİ"
      ],
      [
        "ĠÐ·Ð½",
        "Ð°Ð»"
      ],
      [
        "ĠÐ´",
        "Ð°Ð»"
      ],
      [
        "Ð»",
        "ÐµÐ½Ð¸Ðµ"
      ],
      [
        "ĠÑģÐ²",
        "Ð¾Ð¹"
      ],
      [
        "ÐµÐ½",
        "Ð½ÑĭÑħ"
      ],
      [
        "ĠÐĵÑĢÐ¸Ð³Ð¾ÑĢ",
        "Ð¸Ð¹"
      ],
      [
        "ĠÐ½",
        "Ð¾Ñģ"
      ],
      [
        "ĠÐ±Ñĭ",
        "ÑģÑĤÑĢÐ¾"
      ],
      [
        "ĠÑĤÐ°Ðº",
        "Ð¾Ðµ"
      ],
      [
        "ĠÐ¿ÑĢ",
        "Ð¾Ð±"
      ],
      [
        "Ð»Ñİ",
        "Ñĩ"
      ],
      [
        "ÐµÐ½",
        "Ð½ÑĭÐ¼"
      ],
      [
        "ĠÐ²",
        "Ð¾Ð¹"
      ],
      [
        "ĠÑĤÐ¸Ñħ",
        "Ð¾"
      ],
      [
        "ĠÐ¾ÑĤ",
        "Ñĩ"
      ],
      [
        "Ð¸Ðº",
        "Ð°"
      ],
      [
        "ĠÐ³Ð¾",
        "ÑģÑĤ"
      ],
      [
        "ÑĤÑĮ",
        "ÑģÑı"
      ],
      [
        "ĠÐ¾Ð´",
        "Ð½Ð¾"
      ],
      [
        "ĠÐ·Ð½",
        "Ð°ÐºÐ¾Ð¼"
      ],
      [
        "ĠÑĢÑĥ",
        "Ñģ"
      ],
      [
        "ĠÐŁ",
        "Ð¾Ñģ"
      ],
      [
        "ĠÐºÐ¾ÑĤÐ¾ÑĢ",
        "Ð¾Ð¹"
      ],
      [
        "Ñı",
        "Ð¼Ð¸"
      ],
      [
        "ÑĤ",
        "Ð°ÐºÐ¸"
      ],
      [
        "ĠÐ´Ð¾Ð»",
        "Ð³Ð¾"
      ],
      [
        "ÑĥÑİ",
        "Ñī"
      ],
      [
        "Ð",
        "Ĵ"
      ],
      [
        "ĠÐ¿ÑĢÐ¾Ñģ",
        "ÑĤÐ¾"
      ],
      [
        "ĠÑģ",
        "ÑĬ"
      ],
      [
        "ĠÐŁÐµÑĤ",
        "ÑĢÐ¾Ð²"
      ],
      [
        "Ð½",
        "ÐµÐ¼"
      ],
      [
        "ĠÐ³ÑĢ",
        "Ð¾Ð¼"
      ],
      [
        "ĠÐ²Ð·Ð³",
        "Ð»ÑıÐ´"
      ],
      [
        "ĠÐŀ",
        "Ð½Ð¸"
      ],
      [
        "ĠÐĺÐ²",
        "Ð°Ð½"
      ],
      [
        "ĠÑģÐ²Ð¾",
        "Ð¸Ñħ"
      ],
      [
        "ĠÑįÑĤ",
        "Ð°"
      ],
      [
        "ÑĪ",
        "ÐµÐ¹"
      ],
      [
        "ĠÐ¿Ð¾Ñģ",
        "Ð¼Ð¾ÑĤÑĢ"
      ],
      [
        "Ð½Ð¾",
        "Ñģ"
      ],
      [
        "Ð¼",
        "Ð°ÑĤ"
      ],
      [
        "ÑģÐº",
        "Ð¸Ðµ"
      ],
      [
        "ĠÐ²Ñĭ",
        "ÑĢÐ°Ð¶"
      ],
      [
        "ĠÐ¼",
        "Ð¾ÑĢ"
      ],
      [
        "ĠÐ¼",
        "ÐµÑģÑĤ"
      ],
      [
        "Ð½ÑĥÐ»",
        "Ð°ÑģÑĮ"
      ],
      [
        "ĠÐ¼Ñĭ",
        "ÑģÐ»"
      ],
      [
        "ĠÑĢ",
        "ÑĥÐ±"
      ],
      [
        "ĠÐºÑĢ",
        "Ð¾Ð²"
      ],
      [
        "ÐµÐ½",
        "Ð½Ð¾Ð³Ð¾"
      ],
      [
        "ĠÐ¡ÑĤ",
        "ÐµÐ¿"
      ],
      [
        "ĠÑģÐ»",
        "ÑĥÐ¶"
      ],
      [
        "ĠÐ²Ð¼",
        "ÐµÑģÑĤÐµ"
      ],
      [
        "ĠÐ¼Ð¾",
        "Ñı"
      ],
      [
        "ĠÑģ",
        "ÑĥÐ´"
      ],
      [
        "ĠÐ½Ð°",
        "ÑĢÐ¾Ð´"
      ],
      [
        "Ð»",
        "ÐµÐ½Ð¸Ñı"
      ],
      [
        "Ð°ÑĢ",
        "ÑĮ"
      ],
      [
        "Ñı",
        "Ñĩ"
      ],
      [
        "ĠÐ±",
        "Ð°Ð±"
      ],
      [
        "ĠÑħ",
        "Ð¾Ð»Ð¾Ð´"
      ],
      [
        "ĠÑĤÑĢ",
        "ÑĥÐ´"
      ],
      [
        "Ð¾Ð²",
        "Ð¾Ð¹"
      ],
      [
        "ĠÑĤ",
        "Ð¾Ð¼Ñĥ"
      ],
      [
        "ĠÑģ",
        "ÑĢÐµÐ´"
      ],
      [
        "ĠÐ¿Ð¾Ð²",
        "ÑĤÐ¾ÑĢ"
      ],
      [
        "Ð½Ð°Ðº",
        "Ð¾"
      ],
      [
        "ĠÐ½",
        "ÐµÐ»ÑĮÐ·Ñı"
      ],
      [
        "ĠÐĴ",
        "Ð°Ñģ"
      ],
      [
        "ĠÐ¿ÑĢÐ¸",
        "Ñģ"
      ],
      [
        "ĠÐ±",
        "ÐµÑĢ"
      ],
      [
        "ĠÐľ",
        "Ð¸Ñħ"
      ],
      [
        "ĠÐ¾",
        "ÑĦÐ¸ÑĨ"
      ],
      [
        "ĠÑģÐ²Ð¾",
        "Ð¸Ð¼"
      ],
      [
        "Ð»Ð¸",
        "Ñĩ"
      ],
      [
        "ĠÑĢÐ°Ð·",
        "Ð´"
      ],
      [
        "Ð¾Ð½",
        "ÑĮ"
      ],
      [
        "ĠÐļÐ»Ð¸",
        "Ð¼"
      ],
      [
        "ĠÑģÐ½",
        "Ð¾Ð²Ð°"
      ],
      [
        "ÐµÑĢ",
        "Ð¿"
      ],
      [
        "ĠÑĥ",
        "ÑģÐ»"
      ],
      [
        "Ð¼",
        "Ñĭ"
      ],
      [
        "ĠÐ¿",
        "ÑıÑĤ"
      ],
      [
        "ÑĢ",
        "Ð¸Ðº"
      ],
      [
        "ĠÐ²",
        "Ð½Ð¸Ð¼"
      ],
      [
        "ĠÑĨ",
        "ÐµÐ»"
      ],
      [
        "ĠÐ½Ðµ",
        "Ñĩ"
      ],
      [
        "Ð¾Ð±",
        "Ð½Ð¾"
      ],
      [
        "ĠÐ·",
        "Ð°Ð»"
      ],
      [
        "ÑģÑĤÐ²",
        "Ð¾Ð¼"
      ],
      [
        "ÑĭÐº",
        "Ð½Ð¾Ð²"
      ],
      [
        ".",
        "-"
      ],
      [
        "ĠÐºÐ¾ÑĤÐ¾ÑĢ",
        "Ð°Ñı"
      ],
      [
        "ĠÐĹ",
        "Ð°"
      ],
      [
        "ĠÑģÐ¿",
        "Ð¾ÐºÐ¾Ð¹"
      ],
      [
        "Ð¼",
        "Ð°Ð½"
      ],
      [
        "Ð»Ð¸",
        "ÑĪ"
      ],
      [
        "ĠÐŁ",
        "ÑĢÐ¸"
      ],
      [
        "ÑĢ",
        "Ðµ"
      ],
      [
        "ĠÑĤ",
        "Ðµ"
      ],
      [
        "ĠÐºÐ¾ÑĤÐ¾ÑĢ",
        "Ð¾Ð³Ð¾"
      ],
      [
        "ĠÐº",
        "Ð°Ð¶ÐµÑĤÑģÑı"
      ],
      [
        "Ð·",
        "Ð°"
      ],
      [
        "ÑĥÐ»",
        "ÑĮ"
      ],
      [
        "ĠÐ¿Ð¾Ð²",
        "ÐµÑĢ"
      ],
      [
        "Ðº",
        "Ð¸Ñħ"
      ],
      [
        "ĠÑħ",
        "Ð¾ÑĤÑĮ"
      ],
      [
        "ĠÐ¿ÑĢ",
        "ÐµÐº"
      ],
      [
        "ĠÐ¶",
        "Ð´"
      ],
      [
        "Ð",
        "Ł"
      ],
      [
        "ÐµÑĢ",
        "Ð´"
      ],
      [
        "ÐµÐ²",
        "Ð°"
      ],
      [
        "ĠÐ·",
        "Ð´"
      ],
      [
        "ĠÐ¿",
        "ÑĥÑģÑĤ"
      ],
      [
        "ĠÐ²Ð¾Ð»",
        "Ð¾Ñģ"
      ],
      [
        "ĠÐ¾ÑĤÐ²ÐµÑĤ",
        "Ð¸Ð»"
      ],
      [
        "ĠÑģÑĤ",
        "Ð°Ð»Ð¾"
      ],
      [
        "Ð½",
        "ÐµÑģ"
      ],
      [
        "Ñİ",
        "ÑĪ"
      ],
      [
        "ÐµÐ½Ð½Ð¾",
        "Ðµ"
      ],
      [
        "Ñı",
        "Ð»Ð¸"
      ],
      [
        "ĠÐľ",
        "Ð½Ðµ"
      ],
      [
        "ĠÐ¿Ð¾Ð´ÑĥÐ¼",
        "Ð°Ð»"
      ],
      [
        "ĠÐ¡",
        "Ðº"
      ],
      [
        "Ð¸Ñĩ",
        "Ð°"
      ],
      [
        "Ð°Ðº",
        "Ð¾Ð²"
      ],
      [
        "ĠÑĪ",
        "Ð¸ÑĢ"
      ],
      [
        "ĠÐº",
        "ÑĥÑĢ"
      ],
      [
        "ÑĪ",
        "ÐµÐ³Ð¾"
      ],
      [
        "ÑĪ",
        "Ð¸Ðµ"
      ],
      [
        "ÑĤÐµÑĢ",
        "ÐµÑģ"
      ],
      [
        "ĠÐ½ÑĥÐ¶",
        "Ð½Ð¾"
      ],
      [
        "ĠÐ¾Ð¶",
        "Ð¸Ð´"
      ],
      [
        "ĠÑģ",
        "Ð±"
      ],
      [
        "ĠÑģ",
        "Ð´"
      ],
      [
        "ĠÐ³Ð¾Ð²Ð¾ÑĢ",
        "Ð¸Ð»Ð°"
      ],
      [
        "ĠÑı",
        "Ñģ"
      ],
      [
        "ĠÐ½ÐµÐ¿",
        "ÑĢÐ¸"
      ],
      [
        "Ð°",
        "Ð½Ð¾"
      ],
      [
        "Ð´",
        "Ð°ÑĤ"
      ],
      [
        "Ð¾Ð´",
        "ÑĥÑĪ"
      ],
      [
        "ĠÐº",
        "Ð°Ð¼"
      ],
      [
        "ĠÐ¼",
        "ÐµÑĢ"
      ],
      [
        "ĠÑĥ",
        "Ð²ÐµÑĢ"
      ],
      [
        "ĠÐ³Ð»",
        "ÑĥÐ¿"
      ],
      [
        "ĠÐ²Ñĭ",
        "ÑħÐ¾Ð´"
      ],
      [
        "ĠÑģÐµÑĢÐ´",
        "ÑĨÐµ"
      ],
      [
        "ÑĢÐ¾Ñĩ",
        "ÐµÐ¼"
      ],
      [
        "Ð°Ð½",
        "Ð½Ð¾"
      ],
      [
        "ĠÐŀ",
        "Ð±"
      ],
      [
        "ĠÐ½Ð°",
        "ÑħÐ¾Ð´"
      ],
      [
        "ĠÑĢ",
        "Ñĭ"
      ],
      [
        "Ð",
        "Ĳ"
      ],
      [
        "ĠÑģÐ¿",
        "ÑĢÐ°ÑĪ"
      ],
      [
        "ĠÐ²Ð¿",
        "ÐµÑĢÐµÐ´"
      ],
      [
        "ĠÑĢÐ°Ð·",
        "Ð±"
      ],
      [
        "ĠÐºÑĢ",
        "ÑĥÐ³"
      ],
      [
        "ĠÐ¿Ð¾Ñĩ",
        "ÐµÐ¼Ñĥ"
      ],
      [
        "ĠÑĢ",
        "ÑıÐ´"
      ],
      [
        "Ð²",
        "Ð°Ð»"
      ],
      [
        "ĠÑįÑĤ",
        "Ð¸Ñħ"
      ],
      [
        "ÑıÑĤ",
        "ÐµÐ»ÑĮ"
      ],
      [
        "ĠÐ¾ÑĤ",
        "ÐµÑĨ"
      ],
      [
        "ĠÐ¾ÑĤÐº",
        "ÑĢÑĭ"
      ],
      [
        "ĠÐĶ",
        "Ð°Ð²"
      ],
      [
        "ĠÐ¿ÑĢ",
        "Ð¸Ð¼"
      ],
      [
        "Ñħ",
        "Ð¾ÑĤ"
      ],
      [
        "ĠÐ¾ÑĤ",
        "ÑĤ"
      ],
      [
        "Ð°ÑĤ",
        "Ð¸"
      ],
      [
        "ĠÐ³Ð¾Ð»Ð¾Ñģ",
        "Ð¾Ð¼"
      ],
      [
        "ĠÐ²Ð¾Ð·",
        "Ð²"
      ],
      [
        "Ñĭ",
        "Ð¿"
      ],
      [
        "ĠÐ±Ð»",
        "Ð°Ð³Ð¾"
      ],
      [
        "ĠÐ¿Ð¾",
        "ÑĪÐµÐ»"
      ],
      [
        "ÐµÐ½ÑĮ",
        "ÐºÐ°"
      ],
      [
        "ĠÐ¾Ð´",
        "Ð½Ð°"
      ],
      [
        "ĠÑģÑĤÐ¾",
        "ÑıÐ»"
      ],
      [
        "ĠÐ´",
        "Ð°Ð¼"
      ],
      [
        "Ġ",
        "1"
      ],
      [
        "Ð½Ð¸",
        "ÑĨ"
      ],
      [
        "ÑĢÐ°Ð½ÑĨ",
        "ÑĥÐ·"
      ],
      [
        "ĠÐ»ÑİÐ±",
        "Ð¾Ð²"
      ],
      [
        "ĠÐ´",
        "Ð½Ñı"
      ],
      [
        "ĠÐ¿",
        "Ð¸Ñģ"
      ],
      [
        "ĠÐ´",
        "Ð¾Ð²Ð¾Ð»ÑĮ"
      ],
      [
        "Ð°Ð½",
        "Ð½ÑĭÐ¹"
      ],
      [
        "Ð¸",
        "ÑĢÐ°"
      ],
      [
        "ĠÐ¿ÑĢ",
        "Ð¾Ðº"
      ],
      [
        "ĠÐ¿ÑĢ",
        "Ð¾Ð¿"
      ],
      [
        "ĠÑĤ",
        "Ð°"
      ],
      [
        "ÑģÑĤÐ²",
        "Ðµ"
      ],
      [
        "ĠÑĤ",
        "Ð²Ð¾"
      ],
      [
        "ĠÑĩ",
        "Ð°"
      ],
      [
        "ĠÑģ",
        "Ð¾Ð·"
      ],
      [
        "ĠÐŁÑĮ",
        "ÐµÑĢ"
      ],
      [
        "ÑĤÐ¾ÑĢ",
        "Ð°"
      ],
      [
        "Ð¾Ð»",
        "Ñĩ"
      ],
      [
        "ĠÐ¿ÑĢÐ¾Ð´Ð¾Ð»Ð¶",
        "Ð°Ð»"
      ],
      [
        "ĠÐ¸Ð³",
        "ÑĢ"
      ],
      [
        "ĠÐ´",
        "ÑĥÑħ"
      ],
      [
        "Ð°Ð´ÑĨ",
        "Ð°ÑĤÑĮ"
      ],
      [
        "ĠÐĽ",
        "ÐµÐ²"
      ],
      [
        "ĠÐ¿ÑĢÑıÐ¼",
        "Ð¾"
      ],
      [
        "ĠÐ²Ñĭ",
        "Ð±"
      ],
      [
        "Ð¸Ðº",
        "Ð¸"
      ],
      [
        "ÐµÐºÐ¾",
        "ÑĤÐ¾ÑĢ"
      ],
      [
        "Ð³",
        "Ð°"
      ],
      [
        "ĠÐ¾Ð´",
        "Ð½Ð¾Ð¹"
      ],
      [
        "Ð²ÐµÑĢ",
        "Ð´"
      ],
      [
        "ĠÐ²",
        "ÐµÑĤ"
      ],
      [
        "Ð¸Ðº",
        "Ð¾Ð²"
      ],
      [
        "ĠÑĢÐ°ÑģÑģÐº",
        "Ð°Ð·"
      ],
      [
        "ĠÐ¡",
        "Ð»"
      ],
      [
        "ĠÐ½",
        "Ð°Ð±"
      ],
      [
        "ĠÐ¿",
        "ÐµÑĩ"
      ],
      [
        "ĠÐ¸Ð·",
        "Ð¼"
      ],
      [
        "Ð»Ð¸ÑĪ",
        "ÐºÐ¾Ð¼"
      ],
      [
        "Ð¾Ð»ÑĮ",
        "Ð·"
      ],
      [
        "ĠÐ½",
        "ÐµÐ·"
      ],
      [
        "Ð¾Ð±ÑĢ",
        "Ð°Ð¶"
      ],
      [
        "ÐµÐ»",
        "ÐµÐ½"
      ],
      [
        "ĠÐ³",
        "ÐµÐ½ÐµÑĢ"
      ],
      [
        "ĠÐ²Ð¾ÑģÐº",
        "Ð»Ð¸"
      ],
      [
        "Ñģ",
        "ÑĥÐ´"
      ],
      [
        "ĠÐ¸Ð·Ð²",
        "ÐµÑģÑĤ"
      ],
      [
        "?",
        "."
      ],
      [
        "ĠÐ´",
        "Ð°Ð²Ð½Ð¾"
      ],
      [
        "ĠÐ½Ð°Ð·",
        "Ð°Ð´"
      ],
      [
        "ĠÐ³Ð»ÑıÐ´",
        "Ñı"
      ],
      [
        "ĠÐ¿ÑĢÐµÐ¶",
        "Ð´Ðµ"
      ],
      [
        "ĠÐ·Ð½Ð°",
        "ÐµÑĤ"
      ],
      [
        "ĠÐ´",
        "ÑĥÑĢ"
      ],
      [
        "Ð¸Ð½",
        "ÑĥÐ»"
      ],
      [
        "ÑĭÐ»",
        "ÑĮ"
      ],
      [
        "ĠÑģÐ¿ÑĢÐ¾Ñģ",
        "Ð¸Ð»Ð°"
      ],
      [
        "ĠÐ½Ð¾Ð³",
        "Ð¸"
      ],
      [
        "ĠÐºÑĢ",
        "Ð¸Ñĩ"
      ],
      [
        "ÑĢÐ°",
        "Ñĩ"
      ],
      [
        "Ð¾ÑĢ",
        "Ð°"
      ],
      [
        "ÐµÐ³Ð¾Ð´",
        "Ð½Ñı"
      ],
      [
        "ĠÐĲ",
        "Ñħ"
      ],
      [
        "ÑĪ",
        "Ð¸Ñħ"
      ],
      [
        "ĠÐ·",
        "Ð°Ð½"
      ],
      [
        "ĠÐ³Ð»",
        "Ð°Ð²"
      ],
      [
        "ĠÐĲÐ»ÐµÐºÑģ",
        "Ð°Ð½Ð´"
      ],
      [
        "ĠÐŁ",
        "Ð¾Ð»"
      ],
      [
        "ĠÐ²Ð¾ÑĢ",
        "Ð¾ÑĤ"
      ],
      [
        "ĠÑįÑĤ",
        "Ð¸Ð¼"
      ],
      [
        "ĠÐļ",
        "Ð¾Ð½"
      ],
      [
        "ĠÑĪ",
        "ÐµÐ»"
      ],
      [
        "ĠÐ°",
        "Ð½"
      ],
      [
        "ĠÐ¸ÑģÐ¿",
        "ÑĥÐ³"
      ],
      [
        "ÑĤ",
        "Ð¸ÑĢ"
      ],
      [
        "Ð½Ð¸",
        "Ð¸"
      ],
      [
        "Ðº",
        "Ð¾Ð³Ð¾"
      ],
      [
        "Ð¾Ð»",
        "Ð¾"
      ],
      [
        "ĠÐºÐ¾Ð½",
        "ÐµÑĩÐ½Ð¾"
      ],
      [
        "Ð¸",
        "Ð¾Ð½"
      ],
      [
        "ĠÐ²Ñĭ",
        "Ð´"
      ],
      [
        "ÐµÐ½",
        "Ð½Ð°Ñı"
      ],
      [
        "ĠÐ´",
        "ÐµÑģÑı"
      ],
      [
        "Ð½Ð¾",
        "ÑĪ"
      ],
      [
        "Ð½",
        "ÐµÐ³Ð¾"
      ],
      [
        "ĠÐ¼",
        "Ð°Ð»ÑĮ"
      ],
      [
        "ĠÐ²ÐµÑģ",
        "ÐµÐ»"
      ],
      [
        "ĠÐ³Ð»",
        "ÑĥÐ±"
      ],
      [
        "ĠÑģ",
        "ÐµÑģÑĤ"
      ],
      [
        "ĠÐºÐ¾Ð½",
        "Ñĩ"
      ],
      [
        "ĠÑģÐ°Ð¼",
        "Ð°"
      ],
      [
        "ĠÑģ",
        "Ð»Ð¸ÑĪÐºÐ¾Ð¼"
      ],
      [
        "ĠÐ´",
        "Ð¸Ð²"
      ],
      [
        "ĠÐ¾ÑĤÐ²ÐµÑĩ",
        "Ð°Ð»"
      ],
      [
        "ÑĤ",
        "ÑĢÐ°"
      ],
      [
        "ĠÐ¸Ð¼",
        "ÐµÐ½Ð½Ð¾"
      ],
      [
        "ĠÑģ",
        "ÑĥÐ¼"
      ],
      [
        "ĠÐ±",
        "ÑĥÐ¼"
      ],
      [
        "Ð°Ð½",
        "ÑĮ"
      ],
      [
        "Ð¾Ñģ",
        "ÐºÐ²"
      ],
      [
        "ĠÑĢ",
        "ÐµÐ·"
      ],
      [
        "ĠÐº",
        "ÑĥÐ¿"
      ],
      [
        "ÑĥÐ",
        "³Ð¾"
      ],
      [
        "ÐµÑĢ",
        "Ð±"
      ],
      [
        "ĠÐ¾Ð´",
        "Ð½Ð¾Ð³Ð¾"
      ],
      [
        "ĠÐ½",
        "ÐµÐ¶"
      ],
      [
        "ĠÐ¼",
        "Ð¸ÑĢ"
      ],
      [
        "ĠÑĥ",
        "ÑĤÑĢ"
      ],
      [
        "ÑĪ",
        "Ð»Ð¸"
      ],
      [
        "ÐºÐ¾",
        "Ðµ"
      ],
      [
        "ĠÑĤ",
        "ÐµÐ»"
      ],
      [
        "ĠÐ¿ÑĢÐ¸Ñħ",
        "Ð¾Ð´"
      ],
      [
        "ĠÐ²ÐµÐ»",
        "Ð¸Ðº"
      ],
      [
        "ĠÐ´",
        "Ð»Ð¸Ð½"
      ],
      [
        ".",
        "\""
      ],
      [
        "ĠÑģ",
        "Ñİ"
      ],
      [
        "ĠÐºÑĢ",
        "ÐµÐ¿"
      ],
      [
        "Ġ",
        "Ñİ"
      ],
      [
        "Ð¼",
        "ÐµÑĤ"
      ],
      [
        "Ð¸Ð²",
        "ÑĪÐ¸ÑģÑĮ"
      ],
      [
        "ĠÑģÐ¼",
        "ÐµÑĢ"
      ],
      [
        "ĠÐ²Ñĭ",
        "ÑĪÐµÐ»"
      ],
      [
        "ÐµÐ»",
        "ÐµÐ¹"
      ],
      [
        "ĠÑģÐ¾Ð»",
        "Ð½"
      ],
      [
        "ÑĨ",
        "Ð¸Ð¸"
      ],
      [
        "ĠÐ¿ÑĢ",
        "Ð¸Ñĩ"
      ],
      [
        "ĠÐ»",
        "Ð°Ñģ"
      ],
      [
        "ĠÐ¼Ð¾",
        "ÐµÐ¹"
      ],
      [
        "ĠÐ¿",
        "Ð¾Ð¹"
      ],
      [
        "ĠÐ¡",
        "Ð¿"
      ],
      [
        "Ġ",
        "Â"
      ],
      [
        "ĠÐºÐ°Ðº",
        "Ð¸Ðµ"
      ],
      [
        "ĠÐ´Ð²",
        "Ð¸Ð¶"
      ],
      [
        "ĠÑĥÐ·",
        "Ð½"
      ],
      [
        "Ñĭ",
        "Ð½"
      ],
      [
        "Ð²",
        "Ð¾Ð·"
      ],
      [
        "ĠÑĢ",
        "ÐµÐ²"
      ],
      [
        "ĠÐķ",
        "ÑģÐ»Ð¸"
      ],
      [
        "ĠÐ½",
        "ÐµÐºÐ¾ÑĤÐ¾ÑĢ"
      ],
      [
        "ĠÑģÐ¾Ñģ",
        "ÑĤÐ¾"
      ],
      [
        "ĠÑĤ",
        "Ð¾Ð²Ð°ÑĢ"
      ],
      [
        "ĠÐºÐ¾ÑĤÐ¾ÑĢ",
        "ÑĥÑİ"
      ],
      [
        "ĠÐ¾",
        "Ð·"
      ],
      [
        "ÑĪ",
        "Ð°Ñı"
      ],
      [
        "ĠÐ²Ð¾Ð·",
        "Ð´"
      ],
      [
        "ĠÐºÐ¾ÑĤÐ¾ÑĢ",
        "Ð¾Ðµ"
      ],
      [
        "ĠÑĢ",
        "ÐµÐ±"
      ],
      [
        "ĠÐ¾Ð±ÑĬ",
        "ÑıÑģ"
      ],
      [
        "ĠÑĢ",
        "ÐµÑĩ"
      ],
      [
        "Ñĩ",
        "ÐµÑĤ"
      ],
      [
        "Ñģ",
        "ÑĤÐ¾"
      ],
      [
        "ĠÑĩ",
        "ÑĥÑĤÑĮ"
      ],
      [
        "ĠÐ¾",
        "Ð½Ð¾"
      ],
      [
        "ÐµÑĢ",
        "Ðº"
      ],
      [
        "ĠÑĢÑĥ",
        "Ðº"
      ],
      [
        "ĠÐ·Ð°",
        "Ñĩ"
      ],
      [
        "ÑģÐº",
        "Ð°Ñı"
      ],
      [
        "ĠÐ½",
        "Ð¸Ð¼Ð¸"
      ],
      [
        "ĠÐº",
        "Ð¾Ð³Ð¾"
      ],
      [
        "ĠÐ¼Ð°ÑĤ",
        "ÐµÑĢÐ¸"
      ],
      [
        "ÐµÑģ",
        "Ñģ"
      ],
      [
        "ĠÐ¿ÑĢÐ¸",
        "Ð³"
      ],
      [
        "ÑģÑı",
        "Ñĩ"
      ],
      [
        "ĠÐ²Ñĭ",
        "Ð³"
      ],
      [
        "ĠÐľ",
        "Ð¾ÑģÐºÐ²"
      ],
      [
        "Ð½Ð¸",
        "Ñħ"
      ],
      [
        "ĠÐĲÐ½Ð´ÑĢ",
        "ÐµÐ¹"
      ],
      [
        "Ð°Ð²ÑĪ",
        "Ð¸Ð¹"
      ],
      [
        "ÑĢ",
        "Ñĥ"
      ],
      [
        "ĠÐ³Ð¾",
        "ÑĤÐ¾Ð²"
      ],
      [
        "Ð¾Ð±",
        "Ð¾Ð´"
      ],
      [
        "ĠÐ»Ð¸",
        "ÑĨÐ°"
      ],
      [
        "ĠÑĤ",
        "Ñĥ"
      ],
      [
        "Ð½Ð¸",
        "Ð·"
      ],
      [
        "ĠÐ´",
        "Ð¾Ñĩ"
      ],
      [
        "ĠÑĢÑĥ",
        "ÐºÐ°Ð¼Ð¸"
      ],
      [
        "ĠÐ¾ÑĦÐ¸ÑĨ",
        "ÐµÑĢ"
      ],
      [
        "Ð¾",
        "ÑĦ"
      ],
      [
        "ĠÑĤ",
        "ÐµÑħ"
      ],
      [
        "Ð",
        "¡"
      ],
      [
        "ĠÑħÐ¾Ñĩ",
        "Ñĥ"
      ],
      [
        "Ð½Ð¸",
        "ÑĨÑĭ"
      ],
      [
        "ĠÐ¾",
        "ÑĢ"
      ],
      [
        "ĠÑģ",
        "ÑĩÐ¸ÑĤ"
      ],
      [
        "ĠÐ½",
        "Ñĥ"
      ],
      [
        "ĠÐº",
        "Ð°Ð¿"
      ],
      [
        "ĠÐ³Ð¾Ð»Ð¾Ð²",
        "Ð¾Ð¹"
      ],
      [
        "ĠÐ±ÑĥÐ´",
        "Ñĥ"
      ],
      [
        "Ð",
        "ļ"
      ],
      [
        "Ð»",
        "Ð¾Ð¼"
      ],
      [
        "ĠÐ¶",
        "Ð¸ÑĤÑĮ"
      ],
      [
        "ĠÑģÐ¾Ð»",
        "Ð´Ð°ÑĤ"
      ],
      [
        "ĠÐ¾Ð±",
        "ÐµÐ´"
      ],
      [
        "ĠÑı",
        "ÑĢ"
      ],
      [
        "ĠÐŁ",
        "ÐµÑĢÐµÐ´"
      ],
      [
        ")",
        "."
      ],
      [
        "ĠÐĴÐ°ÑĢ",
        "Ð²Ð°ÑĢ"
      ],
      [
        "ÑģÑĤÑĮ",
        "Ñİ"
      ],
      [
        "ĠÐ¼",
        "Ð¾Ðµ"
      ],
      [
        "ÐºÐ¾",
        "Ñİ"
      ],
      [
        "ĠÐ²ÑĭÑģ",
        "Ð¾Ðº"
      ],
      [
        "Ð½",
        "ÐµÑĤ"
      ],
      [
        "ĠÐº",
        "Ð»"
      ],
      [
        "ĠÐ½",
        "Ð°Ð³"
      ],
      [
        "Ð±",
        "Ñĭ"
      ],
      [
        "ĠÑģÐ¾Ð³",
        "Ð»Ð°Ñģ"
      ],
      [
        "ÑģÐº",
        "Ð¾Ð¼"
      ],
      [
        "Ð½Ð¾ÑģÑĤÑĮ",
        "Ñİ"
      ],
      [
        "ĠÐ±Ð»Ð¸",
        "Ð·"
      ],
      [
        "ĠÐ¿Ð¾Ðº",
        "Ð°"
      ],
      [
        "ĠÑģÐ¼",
        "Ðµ"
      ],
      [
        "ĠÑģÐ¾Ð±",
        "Ð¾Ð¹"
      ],
      [
        "ĠÑĤÐ¾Ð»",
        "Ð¿"
      ],
      [
        "Ð¾Ð·",
        "Ð²"
      ],
      [
        "ĠÐ¼Ñĭ",
        "ÑģÐ»Ð¸"
      ],
      [
        "âĢĿ",
        ","
      ],
      [
        "Ð°Ðº",
        "Ð°"
      ],
      [
        "Ð¼",
        "Ð¾ÑĤ"
      ],
      [
        "Ð¿",
        "Ð¾Ð»"
      ],
      [
        "Ð¾Ð½",
        "Ñĩ"
      ],
      [
        "ĠÐ¿ÑĢÐµÐº",
        "ÑĢÐ°Ñģ"
      ],
      [
        "ĠÑĪ",
        "ÐµÐ¿"
      ],
      [
        "ĠÐ´Ð¾Ð»Ð¶",
        "ÐµÐ½"
      ],
      [
        "Ð±",
        "Ð¾"
      ],
      [
        "ĠÐ¾Ð±",
        "ÑĢÐ°Ñī"
      ],
      [
        "ĠÑĢÐ°ÑģÑģÐº",
        "Ð°Ð·ÑĭÐ²"
      ],
      [
        "Ñĭ",
        "ÑĢ"
      ],
      [
        "ĠÐľ",
        "Ð°Ðº"
      ],
      [
        "ĠÐ»",
        "Ð°Ð´"
      ],
      [
        "Ð¸ÑĤ",
        "Ð°"
      ],
      [
        "Ð¾Ð¿",
        "ÑĭÑĤ"
      ],
      [
        "Ð½Ð¸",
        "ÐºÐ¸"
      ],
      [
        "ĠÐ´Ð²",
        "ÑĥÑħ"
      ],
      [
        "ĠÐºÐ¾ÑĤÐ¾ÑĢ",
        "ÑĭÑħ"
      ],
      [
        "ĠÐ´ÐµÐ»",
        "Ð°ÑĤÑĮ"
      ],
      [
        "Ð¸Ð²",
        "Ð°Ð»Ð°"
      ],
      [
        "ĠÐ½Ðµ",
        "Ñİ"
      ],
      [
        "ĠÐ·Ð½Ð°",
        "ÐµÑĤÐµ"
      ],
      [
        "Ð½Ð¸",
        "ÑĤÑĮ"
      ],
      [
        "ĠÐ´Ð²",
        "Ðµ"
      ],
      [
        "Ð¾ÑģÑĤ",
        "ÑĮÑİ"
      ],
      [
        "ĠÐĿ",
        "ÐµÑħ"
      ],
      [
        "ĠÑģÐ»Ð¾Ð²",
        "Ð¾"
      ],
      [
        "ĠÐ²Ð¾Ð·",
        "Ð¼"
      ],
      [
        "ĠÐĺÐ²Ð°Ð½Ð¾Ð²",
        "Ð¸Ñĩ"
      ],
      [
        "Ð",
        "Ķ"
      ],
      [
        "ĠÐ¾ÑĤ",
        "ÑĨÐ°"
      ],
      [
        "ÐµÑĢÑĤ",
        "Ð²"
      ],
      [
        "ĠÐ»",
        "ÐµÑģ"
      ],
      [
        "ĠÐ¸Ð½",
        "ÑĤÐµÑĢÐµÑģ"
      ],
      [
        "ĠÐºÐ°Ðº",
        "Ð°Ñı"
      ],
      [
        "ĠÐ§",
        "ÐµÑĢ"
      ],
      [
        "ĠÐ´ÑĢ",
        "Ð¾Ð¶"
      ],
      [
        "ĠÐĴ",
        "ÐµÐ´ÑĮ"
      ],
      [
        "ĠÐĲ",
        "Ð»"
      ],
      [
        "ĠÑĥÐ´",
        "Ð°ÑĢ"
      ],
      [
        "Ð¾Ð²",
        "Ð°Ð»Ð°"
      ],
      [
        "ĠÐ¿ÑĢÐ¸Ð±",
        "Ð°Ð²"
      ],
      [
        "ÑģÐº",
        "Ð°"
      ],
      [
        "Ð²",
        "Ð¾Ð´"
      ],
      [
        "ĠÐºÐ¾Ð¼Ð½Ð°",
        "ÑĤÐµ"
      ],
      [
        "ĠÐºÑĢ",
        "ÐµÑģÑĤ"
      ],
      [
        "Ð»",
        "Ñĥ"
      ],
      [
        "ÑĢ",
        "ÑĥÑĪ"
      ],
      [
        "Ð»",
        "Ð°Ð³"
      ],
      [
        "ĠÑģÐºÐ¾ÑĢ",
        "Ð¾"
      ],
      [
        "ĠÐ´",
        "Ð°Ð»ÑĮ"
      ],
      [
        "ĠÐ·Ð°Ð¼",
        "ÐµÑĩ"
      ],
      [
        "Ġ",
        "."
      ],
      [
        "ĠÐ²ÑĢÐµÐ¼",
        "ÐµÐ½Ð¸"
      ],
      [
        "Ñĥ",
        "Ñı"
      ],
      [
        "ĠÑģÐ¸Ð´",
        "ÐµÐ»"
      ],
      [
        "ĠÑģ",
        "ÐµÐ³Ð¾Ð´Ð½Ñı"
      ],
      [
        "ĠÐ¼Ð¾Ð³",
        "Ð»Ð°"
      ],
      [
        "Ð",
        "ŀ"
      ],
      [
        "ÑĨ",
        "ÐµÐ¼"
      ],
      [
        "ĠÑģ",
        "ÑĩÐ°ÑģÑĤ"
      ],
      [
        "ĠÐĿ",
        "Ð°Ð´"
      ],
      [
        "ÑīÐµ",
        "Ðµ"
      ],
      [
        "ĠÐ³ÑĢ",
        "ÑĥÐ´"
      ],
      [
        "ĠÐĲÐ½",
        "Ð½Ð°"
      ],
      [
        "ĠÑĦ",
        "ÑĢÐ°Ð½ÑĨÑĥÐ·"
      ],
      [
        "Ð¸Ð²",
        "Ð°ÑıÑģÑĮ"
      ],
      [
        "ĠÐ²ÑģÑĤÑĢ",
        "ÐµÑĩ"
      ],
      [
        "ĠÐ¸Ð·",
        "Ð±"
      ],
      [
        "ÑģÑĤÐ²",
        "Ð¸Ðµ"
      ],
      [
        "ÐµÐ¶",
        "Ð°Ð»"
      ],
      [
        "ĠÐĴ",
        "ÐµÑĢ"
      ],
      [
        "ĠÐ´Ð²",
        "ÐµÑĢÐ¸"
      ],
      [
        "ĠÑģÐ¼Ð¾ÑĤÑĢ",
        "ÐµÐ»"
      ],
      [
        "ĠÐµ",
        "Ñħ"
      ],
      [
        "Ð°Ð»ÑĮ",
        "Ð½Ð¾"
      ],
      [
        "Ð¸",
        "ÐµÐ¼"
      ],
      [
        "ĠÐ¿ÑĢ",
        "Ð¾Ð¼"
      ],
      [
        "ĠÑī",
        "ÐµÐº"
      ],
      [
        "Ð½Ð°",
        "ÑĤ"
      ],
      [
        "ĠÐ¿Ð¾Ð´",
        "Ð½ÑıÐ»"
      ],
      [
        "ĠÐ²",
        "Ð½Ñĥ"
      ],
      [
        "ĠÐ±",
        "Ð°ÑĤ"
      ],
      [
        "ĠÐ¿Ð¾Ð¶Ð°Ð»",
        "ÑĥÐ¹"
      ],
      [
        "ĠÐ¿ÐµÑĢÐ²",
        "ÑĭÐ¹"
      ],
      [
        "ĠÑģ",
        "ÐµÐº"
      ],
      [
        "ĠÐ²",
        "ÑĤÐ¾ÑĢ"
      ],
      [
        "ĠÐ»Ð¸",
        "ÑĪÑĮ"
      ],
      [
        "ĠÑģÑĤÐ¾ÑĢÐ¾Ð½",
        "Ñĭ"
      ],
      [
        "Ð¸Ð½",
        "Ñı"
      ],
      [
        "Ð¸Ð´",
        "Ð½Ð¾"
      ],
      [
        "ĠÐ±Ð»",
        "ÐµÐ´"
      ],
      [
        "ĠÐ²Ð·Ð´",
        "Ð¾Ñħ"
      ],
      [
        "ĠÑĤÑĭ",
        "ÑģÑıÑĩ"
      ],
      [
        "ĠÐºÐ¾Ð¼Ð½Ð°",
        "ÑĤÑĥ"
      ],
      [
        "Ð¾Ð´",
        "Ð°ÑĢ"
      ],
      [
        "ĠÐº",
        "Ð°Ð±"
      ],
      [
        "ĠÑģÐ°Ð¼",
        "Ð¾Ð¼"
      ],
      [
        "ĠÐ½Ð¾Ñĩ",
        "ÑĮ"
      ],
      [
        "ĠÑĤÐ¾Ð²Ð°ÑĢ",
        "Ð¸Ñī"
      ],
      [
        "ĠÐ³Ð¾Ð²Ð¾ÑĢ",
        "Ñİ"
      ],
      [
        "ĠÐ·Ð°Ð¼ÐµÑĤ",
        "Ð¸Ð»"
      ],
      [
        "ĠÐ¿",
        "ÑıÑĤÑĮ"
      ],
      [
        "ÑģÐº",
        "ÑĥÑİ"
      ],
      [
        "ĠÐļ",
        "Ð°ÑĤ"
      ],
      [
        "Ð",
        "¢"
      ],
      [
        "ÑģÐº",
        "Ð¸Ð¼"
      ],
      [
        "ÑģÐº",
        "Ð¸"
      ],
      [
        "ĠÐ²",
        "Ñĩ"
      ],
      [
        "ĠÐ¼",
        "ÑĥÑĩ"
      ],
      [
        "ĠÐ¾Ð´",
        "Ð½Ð°ÐºÐ¾"
      ],
      [
        "ĠÐķ",
        "Ð³Ð¾"
      ],
      [
        "Ð¾Ð¶",
        "Ð¸Ð´"
      ],
      [
        "ĠÐŀ",
        "ÑĢ"
      ],
      [
        "ĠÐ¿ÑĢÐ¸Ðº",
        "Ð°Ð·"
      ],
      [
        "Ð¾Ð¼",
        "Ðµ"
      ],
      [
        "ĠÐ¼Ð¾",
        "ÐµÐ³Ð¾"
      ],
      [
        "ĠÐ´Ð¾Ð²Ð¾Ð»ÑĮ",
        "Ð½Ð¾"
      ],
      [
        "ÑıÐ»",
        "Ð°ÑģÑĮ"
      ],
      [
        "Ð¼Ð°ÑĤ",
        "ÑĢ"
      ],
      [
        "Ð¸Ð²",
        "Ð°Ð»Ð¸"
      ],
      [
        "ĠÐ¿Ð»",
        "Ð°ÑĤ"
      ],
      [
        "ĠÐ´",
        "Ð¾Ð±"
      ],
      [
        "ĠÐ²",
        "Ð°Ð¼Ð¸"
      ],
      [
        "ĠÐ¼",
        "Ð½Ð¾Ð¹"
      ],
      [
        "ĠÐļ",
        "Ð½Ñı"
      ],
      [
        "Ð¸Ð¶",
        "Ñĥ"
      ],
      [
        "ĠÐ¼",
        "ÐµÐ»"
      ],
      [
        "ÐµÑĩ",
        "Ð°ÑĤ"
      ],
      [
        "Ð¼",
        "ÐµÑĢ"
      ],
      [
        "ĠÐ¼",
        "Ð°Ð»Ð¾"
      ],
      [
        "ĠÐł",
        "Ð°Ñģ"
      ],
      [
        "ÐºÑĥ",
        "Ñİ"
      ],
      [
        "ĠÐ¿",
        "Ð»Ð°"
      ],
      [
        "ĠÐ½",
        "ÑĢÐ°Ð²"
      ],
      [
        "Ð½Ð¸",
        "ÑĨÐ°"
      ],
      [
        "ĠÐ´",
        "Ð¾Ð³"
      ],
      [
        "ĠÑĢÐ°Ñģ",
        "Ðº"
      ],
      [
        "ÑĤ",
        "Ñı"
      ],
      [
        "ĠÐ¾Ñģ",
        "Ð²"
      ],
      [
        "ĠÐ¢",
        "Ð¾Ð»ÑĮÐºÐ¾"
      ],
      [
        "ÑĥÑĪ",
        "ÐºÐ¸"
      ],
      [
        "ÑĢÑı",
        "Ð´"
      ],
      [
        "ĠÑĢÑĥ",
        "ÐºÐ¾Ð¹"
      ],
      [
        "ĠÐ°",
        "Ð²"
      ],
      [
        "ĠÐ·Ð°",
        "ÑģÑĤÐ°Ð²"
      ],
      [
        "ĠÐ¼Ð¾Ð»",
        "ÑĩÐ°"
      ],
      [
        "ÑĭÐ²",
        "Ð°ÑĤÑĮ"
      ],
      [
        "Ð¾Ñħ",
        "Ð¾ÑĤ"
      ],
      [
        "Ð¾Ð²",
        "Ð°Ð½"
      ],
      [
        "Ð°Ð·",
        "Ð´"
      ],
      [
        "ÑĤÐ¾",
        "Ðµ"
      ],
      [
        "Ð°Ð½",
        "Ñĥ"
      ],
      [
        "ĠÐļ",
        "ÑĤÐ¾"
      ],
      [
        "ĠÐ·",
        "ÑĥÐ±"
      ],
      [
        "ĠÐĽ",
        "Ñİ"
      ],
      [
        "ĠÐł",
        "Ð¾ÑģÑĤ"
      ],
      [
        "ĠÐŁÐ°Ð²",
        "Ð»Ð¾Ð²"
      ],
      [
        "ÑĢ",
        "Ð¾ÑĤ"
      ],
      [
        "ĠÑģÐ¼",
        "ÐµÑĪ"
      ],
      [
        "ĠÐ½",
        "ÐµÐ½"
      ],
      [
        "ĠÐ¢",
        "ÐµÐ¿ÐµÑĢÑĮ"
      ],
      [
        "ĠÐ¿",
        "Ð°Ð¿"
      ],
      [
        "ĠÐ¿ÑĢÐ¸",
        "ÑģÐ»"
      ],
      [
        "ÑĥÑĢ",
        "Ð³"
      ],
      [
        "ĠÐ²Ñĭ",
        "Ð·"
      ],
      [
        "ĠÐ¿ÐµÑĢ",
        "ÐµÐ±"
      ],
      [
        "ĠÐº",
        "Ð¾Ñģ"
      ],
      [
        "ĠÐ¡ÑĤ",
        "Ð°ÑĢ"
      ],
      [
        "ĠÑģÐ²Ð¾",
        "ÐµÐ¼"
      ],
      [
        "ĠÐ¼",
        "Ð³"
      ],
      [
        "ÑĢ",
        "Ð°Ð¼"
      ],
      [
        "ÑĢÐ¸Ñĩ",
        "Ð°Ð»"
      ],
      [
        "ĠÑģ",
        "ÑĥÑīÐµ"
      ],
      [
        "ĠÑħÐ¾Ð·Ñı",
        "Ð¹"
      ],
      [
        "ĠÐĶÐ°Ð²",
        "ÑĭÐ´"
      ],
      [
        "ĠÐ¿ÐµÑĢ",
        "ÐµÑģÑĤ"
      ],
      [
        "Ð°ÑİÑĤ",
        "ÑģÑı"
      ],
      [
        "ĠÑĥÑģ",
        "Ð¼"
      ],
      [
        "ĠÐ²ÑģÑĤÑĢ",
        "ÐµÑĤ"
      ],
      [
        "ĠÐ¿",
        "ÑĥÑĤ"
      ],
      [
        "Ð°",
        "Ñī"
      ],
      [
        "Ð»",
        "Ð°Ð²"
      ],
      [
        "ĠÐ½Ð°Ð¿",
        "ÑĢÐ°Ð²"
      ],
      [
        "ĠÑģÑĤÐ¾ÑĢÐ¾Ð½",
        "Ñĥ"
      ],
      [
        "ĠÐ¼",
        "ÐµÑģÑĤÐ¾"
      ],
      [
        "ĠÑĪ",
        "ÑĥÐ¼"
      ],
      [
        "ĠÐ¼ÑĭÑģÐ»",
        "ÑĮ"
      ],
      [
        "Ð¾ÑĪ",
        "Ð»Ð°"
      ],
      [
        "ĠÐ´ÐµÐ»",
        "Ðµ"
      ],
      [
        "ĠÑĩÑĥÐ²ÑģÑĤÐ²",
        "Ð¾Ð²Ð°Ð»"
      ],
      [
        "ĠÐºÑĢ",
        "Ð°Ð¹"
      ],
      [
        "ĠÐ²Ð¸Ð´",
        "ÐµÑĤÑĮ"
      ],
      [
        "ĠÐ",
        "¦"
      ],
      [
        "Ñģ",
        "Ð°"
      ],
      [
        "Ð°Ð´",
        "Ð¸"
      ],
      [
        "ÑĢÐ¸",
        "Ð¿"
      ],
      [
        "ĠÐ·Ð°Ð´",
        "ÑĥÐ¼"
      ],
      [
        "Ð²",
        "Ð¸"
      ],
      [
        "ĠÐ´",
        "Ð¾Ð²"
      ],
      [
        "ĠÐ¿ÐµÑĢ",
        "ÐµÐ²"
      ],
      [
        "ĠÑĩÐ°Ñģ",
        "ÑĤÐ¾"
      ],
      [
        "ĠÑģÑĤ",
        "Ð°Ð»Ð°"
      ],
      [
        "Ð±",
        "Ñĥ"
      ],
      [
        "ĠÐ¶",
        "ÐµÑģÑĤ"
      ],
      [
        "Ð±",
        "Ð°"
      ],
      [
        "ĠÐ²Ð·",
        "ÑıÐ»"
      ],
      [
        "ĠÐ¸Ð½",
        "Ð¾Ð³Ð´Ð°"
      ],
      [
        "ĠÑĤ",
        "Ð¾Ð¹"
      ],
      [
        "Ð»",
        "ÑĥÑĪ"
      ],
      [
        "ĠÑĩ",
        "ÑĢÐµÐ·"
      ],
      [
        "ÑĢ",
        "ÐµÑĤ"
      ],
      [
        "ĠÑģ",
        "Ð°Ð¼Ð¸"
      ],
      [
        "ĠÐ²",
        "Ð°Ð¶"
      ],
      [
        "ĠÑĤ",
        "Ð¾Ð±"
      ],
      [
        "ÑĪÐµ",
        "Ðµ"
      ],
      [
        "ĠÐ½Ð¸Ðº",
        "ÑĤÐ¾"
      ],
      [
        "ĠÐ¿Ð¾Ð´",
        "Ð½Ñı"
      ],
      [
        "ĠÐ²",
        "ÐµÑī"
      ],
      [
        "ĠÑĢ",
        "Ð°ÑģÑĤ"
      ],
      [
        "ĠÐºÐ°Ðº",
        "Ð¾Ðµ"
      ],
      [
        "ĠÑģ",
        "ÐµÐ»"
      ],
      [
        "ĠÐ¿ÑĢÐ¸",
        "ÑıÑĤ"
      ],
      [
        "ĠÐ´Ð¾Ð»Ð¶",
        "Ð½Ð¾"
      ],
      [
        "Ð¾Ð½",
        "Ñı"
      ],
      [
        "ĠÐ»Ð¸ÑĨ",
        "Ðµ"
      ],
      [
        "ĠÐĳ",
        "Ð¾Ð³"
      ],
      [
        "âĢĿ",
        "."
      ],
      [
        "ÑĪ",
        "Ð¸Ð¼"
      ],
      [
        "ĠÐ¿ÑĢ",
        "Ð¸Ð»"
      ],
      [
        "ĠÐĶ",
        "Ð¾Ð»"
      ],
      [
        "ĠÐ¢",
        "ÑĥÑĤ"
      ],
      [
        "ÑĤ",
        "Ð¾Ð¼"
      ],
      [
        "ĠÐº",
        "Ð²Ð°ÑĢ"
      ],
      [
        "ĠÑĩ",
        "ÐµÑĤÑĭ"
      ],
      [
        "ĠÐ²Ð¾Ð·Ð´",
        "ÑĥÑħ"
      ],
      [
        "ĠÐĿÐµÑħ",
        "Ð»ÑİÐ´"
      ],
      [
        "ĠÐ¾Ðº",
        "Ð¾Ð»Ð¾"
      ],
      [
        "Ð¾Ð²",
        "Ñĥ"
      ],
      [
        "ĠÑģÐ°Ð¼",
        "Ð¾Ð³Ð¾"
      ],
      [
        "ĠÑĩ",
        "ÑĥÐ´"
      ],
      [
        "Ð¾Ðº",
        "Ð°"
      ],
      [
        "Ðº",
        "Ð¾Ð½"
      ],
      [
        "ĠÐ·Ð´",
        "Ð¾ÑĢÐ¾Ð²"
      ],
      [
        "Ð½ÑĥÐ²",
        "ÑĪÐ¸ÑģÑĮ"
      ],
      [
        "ĠÑĤ",
        "ÐµÑĢ"
      ],
      [
        "Ð½Ð¸",
        "ÑĨÑĥ"
      ],
      [
        "Ð¾ÑĤ",
        "Ð°"
      ],
      [
        "ĠÐ³Ð¾",
        "ÑģÑĥÐ´"
      ],
      [
        "ĠÐ¡",
        "ÐµÑĢÐ³"
      ],
      [
        "ÑĮ",
        "Ð¸"
      ],
      [
        "ĠÐķ",
        "Ð²"
      ],
      [
        "ĠÑģÑĤÑĢÐ°",
        "Ñħ"
      ],
      [
        "ÑģÑĤÐ²",
        "Ñĥ"
      ],
      [
        "ĠÑĩ",
        "ÑĥÐ¶"
      ],
      [
        "ĠÐ³",
        "Ð¾Ð´Ð°"
      ],
      [
        "ĠÑģÑĤ",
        "ÐµÐ½"
      ],
      [
        "ĠÑı",
        "Ð·"
      ],
      [
        "ĠÐĳ",
        "Ñĭ"
      ],
      [
        "ĠÐ¿Ð¾Ñħ",
        "Ð¾Ð¶"
      ],
      [
        "ĠÐ½",
        "Ð°Ð»"
      ],
      [
        "ĠÐĿÐ¸ÐºÐ¾Ð»",
        "Ð°Ð¹"
      ],
      [
        "ĠÐ¾Ð±",
        "ÑīÐµ"
      ],
      [
        "ĠÐ³Ð¾Ð²Ð¾ÑĢ",
        "Ð¸Ð»Ð¸"
      ],
      [
        "ÑĢÐ°Ð·",
        "Ñĥ"
      ],
      [
        "ĠÐ²",
        "Ð¾Ð²"
      ],
      [
        "ĠÑĤÐ°Ðº",
        "Ð¸Ðµ"
      ],
      [
        "ĠÑĤ",
        "Ð²ÐµÑĢÐ´"
      ],
      [
        "ĠÑĤÐ¾ÑĢ",
        "Ð¾Ð¿"
      ],
      [
        "ĠÐ½Ðµ",
        "Ð¸Ð·"
      ],
      [
        "ĠÑĤ",
        "ÐµÐ¿"
      ],
      [
        "Ð¾Ð²",
        "Ð¸Ñĩ"
      ],
      [
        "ĠÐ¶ÐµÐ½Ñī",
        "Ð¸Ð½Ð°"
      ],
      [
        "ĠÑģÑĤ",
        "Ð°Ð½Ð¾Ð²"
      ],
      [
        "ĠÐĲÐ»ÐµÐºÑģÐ°Ð½Ð´",
        "ÑĢÐ¾Ð²"
      ],
      [
        "Ð½Ð°",
        "ÑĤÑĮ"
      ],
      [
        "ĠÐ¼",
        "ÐµÑĪ"
      ],
      [
        "ĠÐ¿Ð»",
        "Ð°ÑĤÑĮ"
      ],
      [
        "ĠÐ´Ð¾Ð¼",
        "Ð¾Ð¹"
      ],
      [
        "ĠÐ¿ÑĢÐ¾Ð³",
        "Ð¾Ð²Ð¾ÑĢÐ¸Ð»"
      ],
      [
        "ĠÐĽ",
        "Ð¸Ð·"
      ],
      [
        "ĠÐ¼Ð½",
        "Ð¾Ð³"
      ],
      [
        "ĠÐ¼",
        "ÐµÑģÑı"
      ],
      [
        "ĠÐ¿ÐµÑĢ",
        "Ðµ"
      ],
      [
        "ĠÐ¿Ð¾Ñĩ",
        "ÑĥÐ²ÑģÑĤÐ²"
      ],
      [
        "ĠÐ½",
        "ÐµÐº"
      ],
      [
        "ĠÑĥ",
        "ÑģÑĤ"
      ],
      [
        "ĠÐ²Ñģ",
        "Ð¿"
      ],
      [
        "ĠÐ³Ð¾Ð»",
        "ÑĥÐ±"
      ],
      [
        "ĠÐ·Ð°Ñĩ",
        "ÐµÐ¼"
      ],
      [
        "Ð¾Ð±",
        "Ñī"
      ],
      [
        "ĠÐ¿ÑĢ",
        "Ð¸ÑĤ"
      ],
      [
        "ĠÑħ",
        "Ñĥ"
      ],
      [
        "ĠÐ´ÐµÐ¹ÑģÑĤÐ²",
        "Ð¸ÑĤÐµÐ»ÑĮÐ½Ð¾"
      ],
      [
        "ĠÑģÐ¾Ð±",
        "Ð¾Ñİ"
      ],
      [
        "ĠÑģÑĤÐ°ÑĢ",
        "Ð¸Ðº"
      ],
      [
        "ĠÐ»Ð¸ÑĨ",
        "Ð¾Ð¼"
      ],
      [
        "ĠÑĢÑıÐ´",
        "Ð¾Ð¼"
      ],
      [
        "Ð¸Ð²",
        "Ð°ÐµÑĤ"
      ],
      [
        "Ð¾Ð±",
        "ÑīÐµ"
      ],
      [
        "ĠÐºÑĢÐ¸Ðº",
        "Ð½ÑĥÐ»"
      ],
      [
        "ĠÐ¾Ðº",
        "Ð½Ð°"
      ],
      [
        "ĠÐĿ",
        "Ð°ÑģÑĤ"
      ],
      [
        "ĠÑģÐº",
        "Ð¾Ð»ÑĮÐºÐ¾"
      ],
      [
        "ĠÐ³ÐµÐ½ÐµÑĢ",
        "Ð°Ð»"
      ],
      [
        "ÐµÐ½",
        "Ð½ÑĥÑİ"
      ],
      [
        "Â",
        "»"
      ],
      [
        "ĠÐ´ÐµÐ½ÑĮ",
        "Ð³Ð¸"
      ],
      [
        "ĠÐ²",
        "ÑĢ"
      ],
      [
        "ĠÐºÐ°Ðº",
        "Ð¸Ð¼"
      ],
      [
        "ĠÐĴ",
        "Ñģ"
      ],
      [
        "ĠÐ·Ð½Ð°",
        "Ñĩ"
      ],
      [
        "ĠÐŁÐµÑĤ",
        "ÑĢ"
      ],
      [
        "Ð¼",
        "Ð¸ÑĤ"
      ],
      [
        "Ð°",
        "Ð½Ñĭ"
      ],
      [
        "ĠÐĽ",
        "ÑİÐ±"
      ],
      [
        "ĠÑģÑİ",
        "Ð´Ð°"
      ],
      [
        "ĠÑĥÐ»ÑĭÐ±",
        "Ð°ÑıÑģÑĮ"
      ],
      [
        "ĠÐºÑĢ",
        "Ð¾Ð¼Ðµ"
      ],
      [
        "ĠÐ¿Ð¸ÑģÑĮ",
        "Ð¼Ð¾"
      ],
      [
        "ĠÐ¤",
        "Ð¾Ð¼"
      ],
      [
        "Ð¾Ñģ",
        "Ñģ"
      ],
      [
        "ĠÐ¼Ð³",
        "Ð½Ð¾Ð²"
      ],
      [
        "ĠÐ·Ð½Ð°",
        "ÑĤÑĮ"
      ],
      [
        "ĠÑģÐ´ÐµÐ»",
        "Ð°ÑĤÑĮ"
      ],
      [
        "ĠÑĤÐ°Ðº",
        "Ð¸Ð¼"
      ],
      [
        "Ð¾ÑģÑĤ",
        "Ð°Ð²"
      ],
      [
        "Ñĥ",
        "ÑģÑĤÑĮ"
      ],
      [
        "ĠÐºÐ¾ÑĤÐ¾ÑĢ",
        "Ð¾Ð¼"
      ],
      [
        "Ð°ÑĤ",
        "ÑĭÐ¹"
      ],
      [
        "Ð°Ð½",
        "Ðµ"
      ],
      [
        "Ð»ÐµÐ½",
        "Ð°"
      ],
      [
        "ĠÐ¾Ð±",
        "Ð»"
      ],
      [
        "ĠÐ·",
        "Ð¾Ð»"
      ],
      [
        "ÐµÑĢÑĮ",
        "ÐµÐ·"
      ],
      [
        "ĠÂ",
        "«"
      ],
      [
        "ÑĭÑĩ",
        "Ð°Ð¹"
      ],
      [
        "ĠÑĨ",
        "ÐµÑĢ"
      ],
      [
        "ĠÑĥ",
        "Ñħ"
      ],
      [
        "ĠÐ¼Ð¾",
        "Ð¸"
      ],
      [
        "ÑĢ",
        "ÐµÑģÑĤ"
      ],
      [
        "Ð¾Ð¼",
        "Ð½"
      ],
      [
        "ÑģÐº",
        "Ð¾ÑĢ"
      ],
      [
        "Ð°Ð´",
        "ÑĮ"
      ],
      [
        "ĠÑģÐ»",
        "Ð°Ð±"
      ],
      [
        "ĠÑĢ",
        "Ð°Ð²"
      ],
      [
        "Ð¾Ñĩ",
        "ÐºÐ°"
      ],
      [
        "ĠÐ¾ÑĤÐ¿",
        "ÑĢÐ°Ð²"
      ],
      [
        "ĠÑĤÑıÐ¶",
        "ÐµÐ»"
      ],
      [
        "ĠÑģ",
        "ÑĩÐ°"
      ],
      [
        "ĠÑĪ",
        "ÑĥÑĤ"
      ],
      [
        "Ñ£",
        "Ð»"
      ],
      [
        "ÑıÑĤÑĮ",
        "ÑģÑı"
      ],
      [
        "ĠÐ³Ð¾ÑĢ",
        "ÑıÑĩ"
      ],
      [
        "Ð¼Ð¾ÑĤÑĢ",
        "Ñı"
      ],
      [
        "ĠÐµ",
        "Ð¶"
      ],
      [
        "ĠÐ¾Ð¿",
        "Ð°Ñģ"
      ],
      [
        "Ð¼Ñĥ",
        "Ñī"
      ],
      [
        "ĠÐ¿Ð¾Ñģ",
        "Ð¿"
      ],
      [
        "ĠÐļ",
        "Ð¾ÑĢ"
      ],
      [
        "ĠÐ²Ð¸Ð´",
        "Ð½Ð¾"
      ],
      [
        "ĠÑģÐ»Ð¾Ð²",
        "Ð½Ð¾"
      ],
      [
        "ĠÑĤÐ¾Ð»",
        "ÑģÑĤ"
      ],
      [
        "ĠÑĤÑĢ",
        "ÐµÐ±"
      ],
      [
        "Ġ",
        "["
      ],
      [
        "ĠÑģÑĩÐ°ÑģÑĤ",
        "Ð»Ð¸Ð²"
      ],
      [
        "ĠÐĴ",
        "Ð¾"
      ],
      [
        "ĠÐ¾Ðº",
        "Ð°Ð·"
      ],
      [
        "ÐµÐ¼",
        "ÐµÐ½"
      ],
      [
        "ĠÐ¼Ð°Ð»ÑĮ",
        "ÑĩÐ¸Ðº"
      ],
      [
        "ĠÐ",
        "®"
      ],
      [
        "Ð°Ð½",
        "Ð½ÑĭÐµ"
      ],
      [
        "ĠÐ·Ð°Ð²",
        "ÑĤÑĢÐ°"
      ],
      [
        "Ð¾Ð²",
        "Ð°Ð»Ð¸"
      ],
      [
        "ĠÐ±",
        "ÐµÐ³"
      ],
      [
        "ĠÑĩ",
        "Ð¸Ñģ"
      ],
      [
        "Ð¾Ð¶",
        "Ð°Ð»"
      ],
      [
        "ĠÑĢÐ°Ð·",
        "ÑĥÐ¼"
      ],
      [
        "ĠÑĤÑĢ",
        "ÐµÐ²"
      ],
      [
        "Ð¾Ð»",
        "Ð¾Ñģ"
      ],
      [
        "ĠÐĿ",
        "Ð°Ð¿"
      ],
      [
        "ĠÐ¾Ð´",
        "Ð½Ñĥ"
      ],
      [
        "ĠÐ¼",
        "Ð¸Ð¼Ð¾"
      ],
      [
        "ĠÐ²Ð¾Ñģ",
        "Ð¿"
      ],
      [
        "ÐµÐ»",
        "Ñİ"
      ],
      [
        "ĠÐ²",
        "Ð¾Ðº"
      ],
      [
        "ĠÐ¾",
        "ÑģÑĤÑĢ"
      ],
      [
        "Ð¸ÑĤÐµ",
        "ÑģÑĮ"
      ],
      [
        "ĠÐºÐ¾Ð¼Ð½Ð°",
        "ÑĤÑĭ"
      ],
      [
        "ĠÐ½",
        "Ð°Ð¹"
      ],
      [
        "Ð²",
        "Ðµ"
      ],
      [
        "Ñĭ",
        "Ñģ"
      ],
      [
        "Ð¸Ð²",
        "Ð¾"
      ],
      [
        "Ð»ÑıÐ´",
        "ÑĭÐ²"
      ],
      [
        "Ð²",
        "Ð¸Ð¶"
      ],
      [
        "ĠÐ½",
        "Ð°Ð·ÑĭÐ²"
      ],
      [
        "ĠÐĵ",
        "Ð¾Ñģ"
      ],
      [
        "ĠÐ¸ÑģÐ¿",
        "ÑĭÑĤ"
      ],
      [
        "Ð¾ÑĤ",
        "Ñĭ"
      ],
      [
        "ĠÑģÐº",
        "Ð²Ð¾Ð·"
      ],
      [
        "ĠÑģÐ²",
        "Ð¸Ð´"
      ],
      [
        "ĠÐ²",
        "Ð»Ð°"
      ],
      [
        "ĠÑĩÑĥÐ²ÑģÑĤÐ²",
        "Ð¾"
      ],
      [
        "ĠÐ¾ÑĤ",
        "Ð½Ð¾ÑĪ"
      ],
      [
        "ĠÐ¿ÑĢÐ¸",
        "Ð½Ð¸Ð¼"
      ],
      [
        "ĠÑģ",
        "Ð¾ÑĢ"
      ],
      [
        "ĠÐļ",
        "Ð°ÑĢ"
      ],
      [
        "ĠÐ´ÐµÐ»",
        "Ð°"
      ],
      [
        "ÑĨ",
        "Ð°Ð¼Ð¸"
      ],
      [
        "ĠÐ´ÑĢ",
        "ÑĥÐ¶"
      ],
      [
        "Ð½Ñĥ",
        "Ð»Ð¸"
      ],
      [
        "Ð",
        "ľ"
      ],
      [
        "ĠÐ·Ð°",
        "Ð½Ð¸Ð¼"
      ],
      [
        "Ðº",
        "Ð¸Ð¼Ð¸"
      ],
      [
        "ĠÐ¼",
        "ÑıÐ³"
      ],
      [
        "ĠÐ¡Ð°Ð¼",
        "Ð³"
      ],
      [
        "ĠÐĶ",
        "Ð¼Ð¸ÑĤ"
      ],
      [
        "ÑĩÐ¸Ð²",
        "Ð¾"
      ],
      [
        "Ð¾Ð·",
        "Ð¼"
      ],
      [
        "ĠÐĺ",
        "Ð½"
      ],
      [
        "Ð¾Ñģ",
        "Ð¾Ð±"
      ],
      [
        "ĠÐ¼Ð¾Ð»Ð¾Ð´",
        "Ð¾Ð¹"
      ],
      [
        "ÑĤ",
        "Ð°Ð¼"
      ],
      [
        "ĠÐ¸Ñģ",
        "ÑĤÐ¾ÑĢ"
      ],
      [
        "ĠÑģÑĤ",
        "Ð°Ð»Ð¸"
      ],
      [
        "ĠÐľÐ¸Ñħ",
        "Ð°Ð¹"
      ],
      [
        "Ñĥ",
        "ÑĢÐ°"
      ],
      [
        "Ðµ",
        "ÐµÑĤ"
      ],
      [
        "ĠÐĲÐ»",
        "ÐµÑĪ"
      ],
      [
        "Ð¾Ð»",
        "Ð½"
      ],
      [
        "ÑĨ",
        "Ð¾Ð²"
      ],
      [
        "ĠÐ¿ÑĢÐ°Ð²",
        "Ð´Ð°"
      ],
      [
        "ĠÐ¾",
        "Ñī"
      ],
      [
        "ĠÐŁ",
        "Ð¾ÑĤÐ¾Ð¼"
      ],
      [
        "ĠÑģÐ²",
        "Ð¾Ð±Ð¾Ð´"
      ],
      [
        "ĠÐ¿Ð¾Ð´",
        "Ð¾ÑĪÐµÐ»"
      ],
      [
        "ĠÐ»Ð¸",
        "ÑĪ"
      ],
      [
        "ĠÐ¿ÑĢÐµÐ´",
        "Ð»Ð¾Ð¶"
      ],
      [
        "Ð³",
        "Ð°ÑĢ"
      ],
      [
        "Ð½Ð¸",
        "ÑĤ"
      ],
      [
        "ĠÐ½ÐµÐ¼",
        "Ð½Ð¾Ð³Ð¾"
      ],
      [
        "ĠÐºÐ½Ð¸",
        "Ð³"
      ],
      [
        "Ð»",
        "ÐµÐ¹"
      ],
      [
        "ĠÐ·Ð½Ð°",
        "ÐµÑĪÑĮ"
      ],
      [
        "ÑĢ",
        "Ð¾Ðº"
      ],
      [
        "ĠÐ»",
        "ÐµÐ²"
      ],
      [
        "ĠÐ±ÐµÑģ",
        "Ñģ"
      ],
      [
        "ĠÐ²Ð°ÑĪ",
        "Ðµ"
      ],
      [
        "Ð¾Ð¶",
        "ÐµÑĤ"
      ],
      [
        "ÑĢÐµÐ¼",
        "ÐµÐ½Ð½Ð¾"
      ],
      [
        "ĠÐ±Ð»",
        "ÐµÑģÑĤ"
      ],
      [
        "ĠÐ¡",
        "Ð¼"
      ],
      [
        "ĠÐ½Ð°Ñģ",
        "ÑĤÐ¾"
      ],
      [
        "ĠÑģÐ²",
        "ÑıÐ·"
      ],
      [
        "ÑĢ",
        "ÐµÐ±"
      ],
      [
        "ÑĢ",
        "ÐµÐ¶"
      ],
      [
        "ĠÑĢÐ°Ð·",
        "Ð¼"
      ],
      [
        "ĠÑĢÐ°Ð´",
        "Ð¾ÑģÑĤ"
      ],
      [
        "ĠÐ²",
        "ÑģÑĤÐ°Ð»"
      ],
      [
        "ĠÐ²Ð¿",
        "ÑĢÐ¾ÑĩÐµÐ¼"
      ],
      [
        "ĠÐ¼ÐµÐ´",
        "Ð»ÐµÐ½Ð½Ð¾"
      ],
      [
        "Ð½",
        "Ð°ÐºÐ¾Ð¼"
      ],
      [
        "ĠÑĢ",
        "Ð¾Ð·"
      ],
      [
        "ĠÐ´ÑĥÐ¼",
        "Ð°Ñİ"
      ],
      [
        "Ð¸",
        "ÑĤÐ¾"
      ],
      [
        "ĠÑģ",
        "Ð¾Ñĩ"
      ],
      [
        "ĠÐ¿",
        "ÑĮÑı"
      ],
      [
        "ĠÐºÐ¾ÑĢ",
        "Ð¾ÑĤ"
      ],
      [
        "ĠÑģ",
        "ÐµÑĢÑĮÐµÐ·"
      ],
      [
        "ĠÐ½",
        "Ð¸Ð·"
      ],
      [
        "Ðº",
        "Ñģ"
      ],
      [
        "Ð°ÑĢ",
        "Ð°"
      ],
      [
        "ĠÑĪ",
        "Ð»Ñı"
      ],
      [
        "Ð»Ñİ",
        "Ð±"
      ],
      [
        "ĠÐ¸",
        "ÑģÑĤ"
      ],
      [
        "ĠÐ¿ÑĢÐ¾",
        "Ñī"
      ],
      [
        "ĠÐ²Ð¿",
        "Ð¾Ð»"
      ],
      [
        "ĠÐ±",
        "Ð°Ð»"
      ],
      [
        "ĠÑħ",
        "ÑĥÐ´"
      ],
      [
        "ĠÐ²ÐµÑĢ",
        "Ñħ"
      ],
      [
        "ĠÐ´",
        "ÑĭÐ¼"
      ],
      [
        "ĠÑħÐ¾ÑĤÐµÐ»",
        "Ð¾ÑģÑĮ"
      ],
      [
        "ĠÑģ",
        "ÑĥÑħ"
      ],
      [
        "ĠÑĤ",
        "ÐµÑĤ"
      ],
      [
        "Ð½Ð¸",
        "Ð½"
      ],
      [
        "ĠÑģÐ²",
        "ÐµÑĢ"
      ],
      [
        "ĠÐ¾Ð±",
        "Ñī"
      ],
      [
        "Ñ£",
        "ÑĤ"
      ],
      [
        "ĠÐ¼",
        "Ð°Ñģ"
      ],
      [
        "ĠÐ¿Ð¾",
        "ÑĨ"
      ],
      [
        "ĠÑĢÐ°Ð·",
        "Ð´ÑĢ"
      ],
      [
        "ĠÐ³Ð»Ð°Ð·",
        "Ð°Ñħ"
      ],
      [
        "ĠÑģÑĤ",
        "Ð°Ð½"
      ],
      [
        "ĠÐĵ",
        "Ð¾ÑĢ"
      ],
      [
        "ĠÐĽ",
        "Ð¸ÑĤ"
      ],
      [
        "ĠÐ±Ð¾ÑĢ",
        "Ð¾Ð´"
      ],
      [
        "ÑĪ",
        "Ð°"
      ],
      [
        "ĠÐµÐ´",
        "Ð²Ð°"
      ],
      [
        "ÑģÐº",
        "Ð¾Ðµ"
      ],
      [
        "ĠÑĨ",
        "Ð²ÐµÑĤ"
      ],
      [
        "ĠÑĢ",
        "ÐµÐ´"
      ],
      [
        "ĠÑĥ",
        "ÑħÐ¾Ð´"
      ],
      [
        "ÐµÑĢÐ±",
        "ÑĥÑĢÐ³"
      ],
      [
        "ĠÑģÑĤ",
        "ÐµÐ¿"
      ],
      [
        "ĠÐ¾Ð±",
        "ÑĭÐºÐ½Ð¾Ð²"
      ],
      [
        "ĠÑĪÐ¸ÑĢ",
        "Ð¾Ðº"
      ],
      [
        "ĠÐ´ÑĢÑĥÐ³",
        "Ð¸Ñħ"
      ],
      [
        "ĠÐ¼",
        "Ð°Ð¼"
      ],
      [
        "ĠÐºÑĢ",
        "ÐµÑģ"
      ],
      [
        "ĠÐľ",
        "Ð¸ÑĤ"
      ],
      [
        "ĠÐĺÐ²Ð°Ð½Ð¾Ð²",
        "Ð½Ð°"
      ],
      [
        "Ñĥ",
        "ÐºÐ¸"
      ],
      [
        "ĠÐ¿ÑĢ",
        "ÐµÐ²"
      ],
      [
        "ĠÐ¿ÑĢ",
        "ÐµÐ·"
      ],
      [
        "ĠÐ±ÑĥÐ¼",
        "Ð°Ð³"
      ],
      [
        "ĠÐ¿Ð¾Ð·",
        "Ð´"
      ],
      [
        "ĠÑģÐ»ÑĥÑĩ",
        "Ð°"
      ],
      [
        "ĠÐ»Ð°Ñģ",
        "ÐºÐ¾Ð²"
      ],
      [
        "Ð´",
        "Ñĭ"
      ],
      [
        "ĠÐ¢",
        "Ð¾"
      ],
      [
        "ĠÐľÐ°ÑĢ",
        "ÑĮÑı"
      ],
      [
        "ĠÐ¾Ð³",
        "ÑĢÐ¾Ð¼"
      ],
      [
        "ĠÑĢ",
        "Ð°Ð²Ð½Ð¾"
      ],
      [
        "Ð°Ð¼",
        "Ð¿"
      ],
      [
        "ĠÑĦ",
        "Ð¸Ð³"
      ],
      [
        "ĠÐ³Ð¾Ð²Ð¾ÑĢ",
        "ÑıÑĤ"
      ],
      [
        "ĠÐ´Ð¾Ð¼",
        "Ðµ"
      ],
      [
        "ĠÐ¼",
        "ÐµÑĩ"
      ],
      [
        "Ð½Ð¸",
        "ÑĨÐµ"
      ],
      [
        "ĠÐ¾",
        "ÑħÐ¾ÑĤ"
      ],
      [
        "Ð¾Ð»",
        "Ðµ"
      ],
      [
        "ĠÑģ",
        "ÑĢÐ°Ð·Ñĥ"
      ],
      [
        "ĠÑģÐ¼",
        "ÐµÑħ"
      ],
      [
        "ĠÐŁ",
        "Ð°ÑĢ"
      ],
      [
        "Ð°Ð½Ð¸",
        "Ð¸"
      ],
      [
        "ĠÐ¿Ð¾",
        "ÑĪ"
      ],
      [
        "Ð½Ñİ",
        "Ñİ"
      ],
      [
        "ĠÐ¸Ñģ",
        "Ñĩ"
      ],
      [
        "Ð¾ÑĢ",
        "ÑĤ"
      ],
      [
        "ĠÐ·Ð°",
        "Ñħ"
      ],
      [
        "ĠÐºÐ¾ÑĤÐ¾ÑĢ",
        "ÑĭÐ¼"
      ],
      [
        "ÑĪÐ¸",
        "Ð±"
      ],
      [
        "ĠÐ¿ÑĢ",
        "Ð¾Ð½"
      ],
      [
        "Ð°Ð²",
        "Ð°Ð»"
      ],
      [
        "ĠÐ¾Ð½",
        "ÑĬ"
      ],
      [
        "ĠÑĪ",
        "ÑĤ"
      ],
      [
        "ĠÑĢÑĥ",
        "ÐºÐ°Ñħ"
      ],
      [
        "Ð°Ð½Ð¸",
        "ÐµÐ¼"
      ],
      [
        "Ð²",
        "Ð¸Ð³"
      ],
      [
        "ĠÑĩ",
        "ÐµÑĤ"
      ],
      [
        "ĠÐ¯",
        "ÐºÐ¾Ð²"
      ],
      [
        "ĠÐ½Ð°Ð¿",
        "Ð¸Ñģ"
      ],
      [
        "ĠÐ¿Ð¾Ð´",
        "Ð½Ð¸Ð¼"
      ],
      [
        "ĠÐ¿Ð¾ÑĢ",
        "ÑıÐ´"
      ],
      [
        "ĠÑĢÐ°Ð·Ð´ÑĢ",
        "Ð°Ð¶"
      ],
      [
        "ĠÑģ",
        "ÑħÐ²Ð°ÑĤ"
      ],
      [
        "ĠÐ¿Ð¾Ð½Ð¸Ð¼",
        "Ð°Ñİ"
      ],
      [
        "ĠÐ´ÑĢÑĥÐ³",
        "Ð°"
      ],
      [
        "ÑĢÑĭ",
        "ÑĤ"
      ],
      [
        "Ð¸Ð¼",
        "ÑģÑı"
      ],
      [
        "ĠÐ¼Ð¾",
        "Ñİ"
      ],
      [
        "ÑĢÐ¾ÑĤ",
        "Ð¸Ð²"
      ],
      [
        "ĠÐ¼",
        "Ð¾Ð½"
      ],
      [
        "ĠÐŁ",
        "Ð¾Ñĩ"
      ],
      [
        "ĠÐºÐ²Ð°ÑĢ",
        "ÑĤÐ¸ÑĢ"
      ],
      [
        "Ð»",
        "ÐµÑĩ"
      ],
      [
        "ĠÐ²",
        "ÑģÑĤ"
      ],
      [
        "ĠÐ½Ðµ",
        "Ð¾Ð¶Ð¸Ð´"
      ],
      [
        "ĠÐµÐ´",
        "Ð¸Ð½"
      ],
      [
        "ĠÐ²",
        "Ð¾ÑĪÐµÐ»"
      ],
      [
        "ĠÐ¼",
        "ÐµÐ»ÑĮ"
      ],
      [
        "ĠÐ»ÑİÐ±",
        "Ð¾Ð¿ÑĭÑĤ"
      ],
      [
        "ÑĢ",
        "ÐµÐ²"
      ],
      [
        "Ð½Ñı",
        "Ñı"
      ],
      [
        "ĠÑģÑĤ",
        "ÐµÐº"
      ],
      [
        "ĠÐ¾Ð¿",
        "ÑĥÑģÑĤ"
      ],
      [
        "ĠÑĥÐ´",
        "Ð¾Ð²Ð¾Ð»ÑĮ"
      ],
      [
        "ĠÑģÐ¾",
        "Ð¾Ð±Ñī"
      ],
      [
        "Ðº",
        "Ð¸Ð½"
      ],
      [
        "ĠÑĢÐµÐ±",
        "ÐµÐ½"
      ],
      [
        "ÐµÑģÑĤ",
        "Ð½Ð¾"
      ],
      [
        "ĠÑģÐºÐ²Ð¾Ð·",
        "ÑĮ"
      ],
      [
        "ĠÐ·Ð½Ð°",
        "ÑĩÐ¸ÑĤ"
      ],
      [
        "ĠÐ¿",
        "ÐµÑģ"
      ],
      [
        "ĠÐ²",
        "Ð¸Ð½Ð¾Ð²"
      ],
      [
        "ĠÐ¾ÑģÑĤÐ°Ð½Ð¾Ð²",
        "Ð¸Ð»ÑģÑı"
      ],
      [
        "ĠÑģ",
        "Ð¾ÑĤ"
      ],
      [
        "ĠÑģ",
        "ÐµÐ´"
      ],
      [
        "Ð¸Ð²ÑĪ",
        "Ð¸Ð¹"
      ],
      [
        "ĠÐ²Ð¾Ð²",
        "ÑģÐµ"
      ],
      [
        "ĠÑģÐº",
        "ÑĥÑĩ"
      ],
      [
        "ĠÐĳ",
        "Ð¾ÑĢ"
      ],
      [
        "ĠÐ²ÐµÑģ",
        "ÐµÐ»Ð¾"
      ],
      [
        "ĠÐĹ",
        "Ð½Ð°"
      ],
      [
        "ĠÐ¿Ð¾",
        "ÑģÑĤÑĥÐ¿"
      ],
      [
        "ĠÐ¿Ð¾",
        "ÑıÐ²"
      ],
      [
        "Ð¾Ð²Ð¾ÑĢ",
        "Ð¸Ð»Ð°"
      ],
      [
        "Ð¾Ð²",
        "ÑĭÐ¼"
      ],
      [
        "ĠÐ³ÑĥÐ±",
        "Ñĭ"
      ],
      [
        "Ðº",
        "Ð¾Ð»ÑĮ"
      ],
      [
        "ĠÐºÐ°Ð¶Ð´",
        "ÑĭÐ¹"
      ],
      [
        "ĠÐĴÐ°ÑĢÐ²Ð°ÑĢ",
        "Ð°"
      ],
      [
        "ÑĢ",
        "Ð¸Ð¼"
      ],
      [
        "ĠÑĥÐ»ÑĭÐ±",
        "ÐºÐ¾Ð¹"
      ],
      [
        "ĠÐ·Ð°",
        "ÑģÑĤ"
      ],
      [
        "ÑĥÑĤ",
        "ÑĥÐ·"
      ],
      [
        "ĠÐ¼",
        "ÐµÑģÑĤÐµ"
      ],
      [
        "ĠÐĴ",
        "Ð¿"
      ],
      [
        "ĠÐ¿Ð¾",
        "ÑģÑĤÐ°Ð²"
      ],
      [
        "ĠÑģÐ°Ð¼",
        "Ð¾Ðµ"
      ],
      [
        "ÑĢ",
        "Ð¾Ð±"
      ],
      [
        "ĠÐ»",
        "Ð¾Ð¶"
      ],
      [
        "ĠÐ¿Ð¾Ð·",
        "Ð²Ð¾Ð»"
      ],
      [
        "Ð¾Ð»",
        "Ð²"
      ],
      [
        "Ð·",
        "ÑĮ"
      ],
      [
        "ĠÐ»ÑİÐ±",
        "Ð²Ð¸"
      ],
      [
        "ĠÐ´Ð¾Ñģ",
        "Ð°Ð´"
      ],
      [
        "ĠÐ¿",
        "Ð¾Ð¹Ð´"
      ],
      [
        "Ð°Ð½",
        "Ð½Ð¾Ð¹"
      ],
      [
        "ĠÐ´",
        "Ð¾Ð¶Ð´"
      ],
      [
        "ĠÐ½Ð°Ð²",
        "ÐµÑĢ"
      ],
      [
        "ĠÐ³Ð¾ÑĢ",
        "Ð´"
      ],
      [
        "ĠÐĽÐµÐ²",
        "Ð¸Ð½"
      ],
      [
        "ĠÐ´Ð¾Ðº",
        "ÑĤÐ¾ÑĢ"
      ],
      [
        "ÑĮ",
        "Ð¼Ð¸"
      ],
      [
        "ĠÐ´Ð²",
        "ÐµÑĢ"
      ],
      [
        "ĠÑħÐ»",
        "ÐµÐ±"
      ],
      [
        "Ð",
        "¯"
      ],
      [
        "Ð¾Ð»ÑĮ",
        "ÑĤÐµ"
      ],
      [
        "ÐµÐ½",
        "Ð½ÑĭÐ¼Ð¸"
      ],
      [
        "ĠÐ²Ð¾Ð»",
        "Ð½"
      ],
      [
        "ĠÑģÐ²Ð¾",
        "Ð¸Ð¼Ð¸"
      ],
      [
        "ĠÑģÐ»ÑĥÑĩ",
        "Ð°Ð¹"
      ],
      [
        "ĠÐ°Ð½",
        "Ð³"
      ],
      [
        "ÑĪ",
        "ÑĥÑİ"
      ],
      [
        "ĠÑģÐ»ÑĭÑĪ",
        "Ð°Ð»"
      ],
      [
        "ĠÑĤÐ°Ðº",
        "Ð°Ñı"
      ],
      [
        "ĠÐ½ÐµÐ¾Ð±",
        "ÑħÐ¾Ð´"
      ],
      [
        "ĠÐ½",
        "ÐµÑĢ"
      ],
      [
        "ĠÐŁ",
        "ÐµÑĢ"
      ],
      [
        "ĠÑĤ",
        "Ð²"
      ],
      [
        "Ð°Ð²",
        "ÑĢ"
      ],
      [
        "ĠÐ¿",
        "Ð°Ð¼"
      ],
      [
        "ĠÐ°",
        "Ðº"
      ],
      [
        "ĠÐĽ",
        "Ð¸Ð´"
      ],
      [
        "ĠÑĩ",
        "Ð¸ÑģÑĤ"
      ],
      [
        "Ð°ÑĤ",
        "Ð°"
      ],
      [
        "ĠÐºÐ¾Ð¼",
        "Ð°Ð½Ð´"
      ],
      [
        "ĠÐ¶",
        "Ð°ÑĢ"
      ],
      [
        "ĠÐ½ÐµÐ¿",
        "Ð¾Ð´"
      ],
      [
        "ĠÐºÐ½ÑıÐ·",
        "Ñı"
      ],
      [
        "ÑĢ",
        "ÐµÐº"
      ],
      [
        "ÑĢÑĭ",
        "Ð»"
      ],
      [
        "Ð°Ðº",
        "ÑĤ"
      ],
      [
        "ĠÐ²Ñĭ",
        "ÑģÐº"
      ],
      [
        "ĠÐ»ÑİÐ±",
        "Ð»Ñİ"
      ],
      [
        "Ð»",
        "Ð°Ð·"
      ],
      [
        "ĠÐ´",
        "ÐµÐ½"
      ],
      [
        "ĠÐķ",
        "Ð¼Ñĥ"
      ],
      [
        "ĠÐ³ÑĢÑĥÐ´",
        "Ð¸"
      ],
      [
        "ĠÐ²Ñĭ",
        "Ðº"
      ],
      [
        "ĠÐ¤ÐµÐ´",
        "Ð¾ÑĢÐ¾Ð²"
      ],
      [
        "ĠÐ¿Ð¾Ð»",
        "Ð¾Ð²"
      ],
      [
        "ĠÐ¿ÑĢÐ¸",
        "ÑĪ"
      ],
      [
        "Ð°Ñİ",
        "ÑģÑĮ"
      ],
      [
        "ĠÐļ",
        "ÑĥÑĤÑĥÐ·"
      ],
      [
        "ĠÑģÐ»",
        "Ð°Ð²"
      ],
      [
        "ĠÐºÑĢ",
        "ÑĭÐ»ÑĮ"
      ],
      [
        "ĠÑģÑĤÑĢ",
        "Ð°Ð´"
      ],
      [
        "ĠÐ¾ÑĤÑĩ",
        "Ð°Ñı"
      ],
      [
        "ĠÐ¿Ð¾Ð´",
        "Ð¾Ð±"
      ],
      [
        "ÑĥÑħ",
        "Ð°"
      ],
      [
        "ĠÑĥÑģÐ¼",
        "ÐµÑħ"
      ],
      [
        "Ð¾Ð»",
        "Ñı"
      ],
      [
        "ĠÑĤÐ°Ðº",
        "Ð¸Ñħ"
      ],
      [
        "ĠÐ¿Ð¾ÑģÐ¿",
        "ÐµÑĪ"
      ],
      [
        "Ñĭ",
        "ÑģÐº"
      ],
      [
        "ĠÐ¸Ð´",
        "ÑĤÐ¸"
      ],
      [
        "Ñĥ",
        "Ð»Ñı"
      ],
      [
        "ĠÐ¿Ð¾Ð»",
        "Ñĥ"
      ],
      [
        "Ð",
        "ĺ"
      ],
      [
        "ĠÐ¿",
        "Ð°Ð»"
      ],
      [
        "ĠÑĥÐ³",
        "ÑĢ"
      ],
      [
        "ĠÐ¸ÑģÑĩ",
        "ÐµÐ·"
      ],
      [
        "ĠÐ±Ð¾Ð»",
        "ÐµÐ·"
      ],
      [
        "ĠÐ»ÐµÐ³",
        "ÐºÐ¾"
      ],
      [
        "ĠÑħÐ»",
        "Ð¾Ð¿"
      ],
      [
        "Ñĭ",
        "Ð³"
      ],
      [
        "ĠÐ²",
        "Ð½Ð¸Ð·"
      ],
      [
        "ÑĨ",
        "Ð¸"
      ],
      [
        "ÑģÑĤÐ²",
        "Ð¸Ñı"
      ],
      [
        "ĠÑįÑĤ",
        "Ð¾Ð¼Ñĥ"
      ],
      [
        "ĠÐ·Ð°ÑĤ",
        "ÐµÐ¼"
      ],
      [
        "ĠÑıÑģ",
        "Ð½Ð¾"
      ],
      [
        "ĠÐ¾ÑĤÐ²",
        "Ð¾ÑĢ"
      ],
      [
        "ĠÑĪÐ»Ñı",
        "Ð¿"
      ],
      [
        "ĠÑĤ",
        "ÑĥÐ´Ð°"
      ],
      [
        "ĠÐ¾Ð±",
        "Ð¾"
      ],
      [
        "ĠÑģÐ°Ð¼",
        "Ð¾Ð¹"
      ],
      [
        "ĠÑģÑĭ",
        "Ð½"
      ],
      [
        "ĠÐ´ÑĢ",
        "ÑĥÐ³Ð¾"
      ],
      [
        "ÑıÑĤ",
        "ÑģÑı"
      ],
      [
        "Ð¸",
        "ÑĨÐ°"
      ],
      [
        "ÑĢÐ¸",
        "Ñı"
      ],
      [
        "ĠÐ´ÑĥÐ¼",
        "Ð°ÑĤÑĮ"
      ],
      [
        "Ð¾",
        "ÑıÑĤÐ½Ð¾"
      ],
      [
        "ĠÐ²",
        "ÑħÐ¾Ð´"
      ],
      [
        "Ð½Ð¸",
        "ÐºÐ¾Ð¼"
      ],
      [
        "Ð°Ð¼",
        "ÐµÐ½"
      ],
      [
        "Ð°Ð²ÑĪ",
        "Ð¸Ðµ"
      ],
      [
        "ĠÐ±",
        "Ð¾Ðº"
      ],
      [
        "ĠÐ¿Ð¾ÑĤ",
        "ÐµÑĢ"
      ],
      [
        "ĠÐĿÐ°ÑĤ",
        "Ð°ÑĪÐ°"
      ],
      [
        "ĠÐ±Ð»Ð°Ð³",
        "Ð¾Ð´Ð°ÑĢ"
      ],
      [
        "ÑİÑĪ",
        "ÐºÐ°"
      ],
      [
        "ĠÐł",
        "Ð¾ÑģÑģ"
      ],
      [
        "ĠÑģÑĢÐµÐ´",
        "Ð¸"
      ],
      [
        "Ð¸Ð²",
        "Ð°Ð»ÑģÑı"
      ],
      [
        "ĠÐ·Ð°Ð³",
        "Ð¾Ð²Ð¾ÑĢÐ¸Ð»"
      ],
      [
        "ÑĢÐµÐ´",
        "ÐµÐ»"
      ],
      [
        "ĠÐ·",
        "ÐµÐ»ÐµÐ½"
      ],
      [
        "ĠÐ¾ÑĤ",
        "ÑĬ"
      ],
      [
        "Ð°Ð²ÑĪ",
        "Ð¸Ñħ"
      ],
      [
        "ĠÐ»",
        "ÐµÑģÑĤ"
      ],
      [
        "ĠÐ¼ÐµÑģÑĤ",
        "Ð°"
      ],
      [
        "Ñī",
        "Ð¸Ðº"
      ],
      [
        "ĠÑĢÐ°Ð·Ð²",
        "Ðµ"
      ],
      [
        "ĠÐºÐ°Ð±",
        "Ð¸Ð½"
      ],
      [
        "ĠÐ²Ñĩ",
        "ÐµÑĢÐ°"
      ],
      [
        "Ð²",
        "Ð¸Ð´"
      ],
      [
        "ĠÐ¿ÑĢÐ¸",
        "ÑĪÐµÐ»"
      ],
      [
        "ĠÐĿ",
        "Ð°Ðº"
      ],
      [
        "ĠÐļ",
        "ÑĢ"
      ],
      [
        "ĠÐ¾Ñģ",
        "ÑĤÐ¾ÑĢ"
      ],
      [
        "ĠÑģÐ´ÐµÐ»",
        "Ð°Ð»"
      ],
      [
        "ĠÐŀÑĢ",
        "ÑĤÑĢ"
      ],
      [
        "Ð°ÑĢ",
        "Ñı"
      ],
      [
        "ĠÐ¿ÑĢÐ¸",
        "Ð¿"
      ],
      [
        "ĠÐºÐ°ÑĢ",
        "ÑĤ"
      ],
      [
        "ĠÑģÑĤÑĢÐ°Ð½",
        "Ð½Ð¾"
      ],
      [
        "ĠÑĤÐ¾Ð±",
        "Ð¾Ð¹"
      ],
      [
        "ĠÐ¶",
        "Ð¸Ð»"
      ],
      [
        "ĠÑĤÐµÐ¼",
        "Ð½Ð¾"
      ],
      [
        "ĠÐ·Ð²",
        "Ð¾Ð½"
      ],
      [
        "Ñĭ",
        "ÑģÐ»"
      ],
      [
        "ĠÐ²Ð¾Ñģ",
        "ÑĤÐ¾ÑĢ"
      ],
      [
        "ĠÐĲÐ»ÐµÐº",
        "ÑģÐµ"
      ],
      [
        "ĠÐŁ",
        "Ð¾Ð¼"
      ],
      [
        "ĠÑĤÐ°Ðº",
        "Ð¾Ð³Ð¾"
      ],
      [
        "ĠÐ´ÑĢÑĥÐ³",
        "Ð¸Ðµ"
      ],
      [
        "ĠÑĤ",
        "Ð°Ð¹"
      ],
      [
        "ĠÑħÐ¾Ñĩ",
        "ÐµÑĤ"
      ],
      [
        "ĠÑģÐ¼ÐµÑĢ",
        "ÑĤÐ¸"
      ],
      [
        "ĠÐ¿Ð¾Ð´",
        "Ð¿"
      ],
      [
        "ĠÐŁÐµÑĢÐµÐ´",
        "Ð¾Ð½Ð¾Ð²"
      ],
      [
        "ĠÐĶÐ°Ð²ÑĭÐ´",
        "Ð¾Ð²"
      ],
      [
        "ĠÑĢ",
        "Ð¾ÑĤ"
      ],
      [
        "Ð¼Ñĥ",
        "ÑĢ"
      ],
      [
        "ĠÐ¿Ð¾ÑģÐ¼Ð¾ÑĤÑĢ",
        "ÐµÐ»"
      ],
      [
        "ĠÐ»",
        "Ð¾Ð²"
      ],
      [
        "ĠÐ¶",
        "ÐµÐ½Ð¸"
      ],
      [
        "ĠÐ½ÐµÐ¿ÑĢÐ¸",
        "ÑıÑĤ"
      ],
      [
        "ĠÑĤ",
        "Ð¾Ð¿"
      ],
      [
        "ĠÐ¾Ð±",
        "Ð¸Ð´"
      ],
      [
        "Ð¾Ð»",
        "Ñİ"
      ],
      [
        "ĠÑĩÐµÐ»Ð¾Ð²",
        "ÐµÑĩ"
      ],
      [
        "ĠÐ¿Ð¾Ð·",
        "Ð²"
      ],
      [
        "ĠÐ¼",
        "Ð½Ð¾Ñİ"
      ],
      [
        "ĠÐļÐ½Ñı",
        "Ð·ÑĮ"
      ],
      [
        "ĠÑģÐ»ÑĥÑĩÐ°",
        "Ðµ"
      ],
      [
        "ĠÐ²Ñģ",
        "ÐµÐ¹"
      ],
      [
        "ĠÑģÐ¾Ñģ",
        "ÐµÐ´"
      ],
      [
        "ĠÐ½ÐµÑģ",
        "Ð¼Ð¾ÑĤÑĢÑı"
      ],
      [
        "ĠÐ¿ÑĢÐ¾",
        "Ð¸Ñģ"
      ],
      [
        "ĠÑĩÐ°Ñģ",
        "Ð¾Ð²"
      ],
      [
        "ĠÐ¾Ðº",
        "ÑĢÑĥÐ¶"
      ],
      [
        "ĠÑģ",
        "Ð¶"
      ],
      [
        "ĠÑĥÐ¼",
        "ÐµÑĢ"
      ],
      [
        "ĠÐ¿ÑĢÐ¸",
        "Ð¶"
      ],
      [
        "ĠÐ³ÑĢ",
        "ÑıÐ·"
      ],
      [
        "ĠÐĵ",
        "ÑĢÐ°ÑĦ"
      ],
      [
        "Ð»",
        "Ð°ÑĤ"
      ],
      [
        "ĠÐ¾ÑĤ",
        "Ñģ"
      ],
      [
        "ĠÐłÐ¾ÑģÑĤ",
        "Ð¾Ð²"
      ],
      [
        "ĠÑģÐ¿",
        "Ð°Ñģ"
      ],
      [
        "ĠÑģÑĤÐ¾",
        "Ð¸ÑĤ"
      ],
      [
        "Ð",
        "§"
      ],
      [
        "ĠÐ²Ð¾Ðº",
        "ÑĢÑĥÐ³"
      ],
      [
        "ÑĢÐ¸",
        "ÑģÑĤ"
      ],
      [
        "ĠÐ³ÑĢ",
        "ÑĥÐ±"
      ],
      [
        "ĠÑĩÐµÑĢ",
        "ÑĤ"
      ],
      [
        "ĠÐ±Ð¾Ð³",
        "Ð°ÑĤ"
      ],
      [
        "ĠÐ´",
        "Ð¾Ð½"
      ],
      [
        "Ð½Ð¸",
        "Ð²"
      ],
      [
        "ĠÑģÑĤ",
        "ÑĭÐ´"
      ],
      [
        "ĠÐ°",
        "Ð´"
      ],
      [
        "ĠÐ»",
        "Ð¸Ñĩ"
      ],
      [
        "ĠÐ·ÐµÐ¼",
        "Ð»Ñİ"
      ],
      [
        "ÑĢÐ°Ð²",
        "Ð»Ñı"
      ],
      [
        "ÑĨ",
        "Ð¸Ñı"
      ],
      [
        "Ð¾Ð·",
        "Ð´"
      ],
      [
        "ÐµÐ´",
        "Ð¸Ð½"
      ],
      [
        "ĠÐ±Ð¾Ð»ÑĮÑĪ",
        "Ð¾Ð¹"
      ],
      [
        "ĠÑģÐ¾ÑģÑĤÐ¾",
        "Ñı"
      ],
      [
        "ĠÐ²",
        "ÐµÐ´"
      ],
      [
        "Ð°Ð»",
        "ÑĬ"
      ],
      [
        "ĠÐ³",
        "ÑĢÐ°"
      ],
      [
        "ĠÐ²Ð¾",
        "Ð¾Ð±ÑīÐµ"
      ],
      [
        "ĠÑħÑĥ",
        "ÑĤÐ¾ÑĢ"
      ],
      [
        "Ñģ",
        "Ð¾Ð²"
      ],
      [
        "ÑĢÐ°",
        "ÑģÑĤ"
      ],
      [
        "ĠÑģÐ¿Ð¾ÐºÐ¾Ð¹",
        "Ð½Ð¾"
      ],
      [
        "ĠÐĿÐ¸ÐºÐ¾Ð»",
        "Ð°"
      ],
      [
        "ĠÐ³ÑĢÐ¾Ð¼",
        "ÐºÐ¾"
      ],
      [
        "ĠÐºÐ°Ðº",
        "ÑĬ"
      ],
      [
        "ÑĥÑİ",
        "ÑĤ"
      ],
      [
        "ĠÐ±",
        "ÑĢÐ¾Ð²"
      ],
      [
        "ĠÐ»ÑİÐ±Ð¾Ð²",
        "ÑĮ"
      ],
      [
        "ÑģÐº",
        "Ð¾Ð¼Ñĥ"
      ],
      [
        "ĠÐŁÐµÑĤÑĢÐ¾Ð²",
        "Ð¸Ñĩ"
      ],
      [
        "ĠÐ´",
        "Ð¾Ð¿"
      ],
      [
        "ĠÐ¿",
        "Ð°Ð´"
      ],
      [
        "Ð²",
        "ÑĭÑĩÐ°Ð¹"
      ],
      [
        "ĠÐ¿Ð¾Ð½",
        "ÑıÑĤÑĮ"
      ],
      [
        "ĠÐĲÑĢ",
        "Ðº"
      ],
      [
        "Ð½",
        "ÐµÐ·"
      ],
      [
        "ĠÐ¾",
        "Ð²"
      ],
      [
        "Ð»",
        "ÐµÐ½Ð¸ÐµÐ¼"
      ],
      [
        "ÑĨ",
        "ÐµÐ½"
      ],
      [
        "Ð·",
        "Ð´"
      ],
      [
        "ĠÑĥÐ²Ð¸Ð´",
        "ÐµÐ»"
      ],
      [
        "ĠÐĲÐ»ÐµÐºÑģ",
        "ÐµÐ¹"
      ],
      [
        "ĠÐ±",
        "ÑĥÑĢ"
      ],
      [
        "ĠÑģÐ»ÐµÐ·",
        "Ñĭ"
      ],
      [
        "ĠÐ¿Ð¾Ñĩ",
        "ÑĤ"
      ],
      [
        "ĠÐ¿Ð¾Ñģ",
        "ÑĤÐ¾"
      ],
      [
        "ĠÐ³",
        "Ð°Ð·"
      ],
      [
        "ĠÐ²Ñĭ",
        "Ð¹"
      ],
      [
        "ĠÑģÑĤ",
        "ÑĥÐ¿"
      ],
      [
        "ĠÑģÐ²",
        "ÐµÑĤÐµ"
      ],
      [
        "ĠÐ¿Ð»",
        "Ð°Ðº"
      ],
      [
        "ĠÐ¡ÑĤÐµÐ¿",
        "Ð°Ð½"
      ],
      [
        "ĠÐ²",
        "Ð¸Ð¶Ñĥ"
      ],
      [
        "Ð²",
        "Ð¸Ð½"
      ],
      [
        "ĠÐº",
        "Ð°Ñĩ"
      ],
      [
        "ĠÐ¿Ð¾Ðº",
        "Ð»Ð¾Ð½"
      ],
      [
        "ĠÑĩ",
        "ÐµÐ¼Ñĥ"
      ],
      [
        "ĠÐº",
        "Ð¾ÑģÑĤ"
      ],
      [
        "ĠÐ½ÐµÑģ",
        "ÑĩÐ°ÑģÑĤ"
      ],
      [
        "ĠÐ³Ð¾ÑģÐ¿Ð¾Ð´",
        "Ð¸Ð½"
      ],
      [
        "Ð¼",
        "ÐµÑĪ"
      ],
      [
        "ĠÐºÑĢÐ°Ñģ",
        "Ð¸Ð²"
      ],
      [
        "ĠÐ¿Ð¾Ð´",
        "Ð±"
      ],
      [
        "ĠÐ¿ÑĢÐ¸",
        "ÑģÑĤ"
      ],
      [
        "ÐµÐ½ÑĮ",
        "Ðµ"
      ],
      [
        "ĠÐ¿ÑĢÐ¾",
        "ÑħÐ¾Ð´"
      ],
      [
        "ĠÑĩÐµÑĤ",
        "Ð²ÐµÑĢ"
      ],
      [
        "Ðº",
        "Ð°Ð¼"
      ],
      [
        "ĠÑĢ",
        "ÑĥÑĩ"
      ],
      [
        "ĠÑģÐ²Ð¾",
        "ÐµÐ¼Ñĥ"
      ],
      [
        "ĠÐ¿Ð¾Ð½",
        "ÑıÐ»"
      ],
      [
        "ĠÑĩÑĢÐµÐ·",
        "Ð²ÑĭÑĩÐ°Ð¹"
      ],
      [
        "ÑĤ",
        "Ð°Ðº"
      ],
      [
        "Ð´",
        "Ð¸"
      ],
      [
        "Ð¸ÑĩÐµÑģÐº",
        "Ð¸"
      ],
      [
        "ĠÐ±ÑĥÐ´",
        "ÑĥÑĤ"
      ],
      [
        "Ð¸",
        "ÑĦ"
      ],
      [
        "ĠÐ´ÑĥÑĪ",
        "Ðµ"
      ],
      [
        "ĠÑĢ",
        "ÐµÐº"
      ],
      [
        "ĠÐľ",
        "Ð¾Ð¶ÐµÑĤ"
      ],
      [
        "ĠÑģ",
        "Ð¾Ð¿"
      ],
      [
        "ĠÑĤÐ¾",
        "Ñĩ"
      ],
      [
        "ĠÑģÐ¿",
        "Ð¾ÑģÐ¾Ð±"
      ],
      [
        "Ð¾ÑĢÐ¾ÑĪ",
        "Ð¾"
      ],
      [
        "Ð°Ñĩ",
        "ÐµÐ¼"
      ],
      [
        "ĠÐ¾ÑģÑĤ",
        "Ð°Ð½"
      ],
      [
        "ĠÐ¾Ð±ÑĬ",
        "ÑıÐ²"
      ],
      [
        "ĠÐ½Ð°Ñĩ",
        "Ð°Ð»Ð°"
      ],
      [
        "Ðµ",
        "ÐµÑĤÑģÑı"
      ],
      [
        "ĠÐ¶ÐµÐ½",
        "Ð°"
      ],
      [
        "ĠÐ´Ð°Ð»ÑĮ",
        "ÑĪÐµ"
      ],
      [
        "ĠÐľÐ¸ÑħÐ°Ð¹",
        "Ð»Ð¾Ð²"
      ],
      [
        "ÑĢ",
        "ÐµÑĪ"
      ],
      [
        "ÑıÐ»",
        "Ð¾"
      ],
      [
        "ĠÐĴÐ°Ñģ",
        "Ð¸Ð»ÑĮ"
      ],
      [
        "ĠÐŀ",
        "Ñĩ"
      ],
      [
        "ĠÑģÐ½",
        "ÐµÐ³"
      ],
      [
        "ĠÑģÐºÐ°Ð¶",
        "Ñĥ"
      ],
      [
        "ÑĢ",
        "Ð°Ð±"
      ],
      [
        "ĠÐ¿Ð¾Ðº",
        "Ð¾Ð¹"
      ],
      [
        "Ð¼Ð¾ÑĤ",
        "Ð°Ð»"
      ],
      [
        "ĠÐĵÑĢÐ¸",
        "Ð³Ð¾"
      ],
      [
        "ĠÑħÐ¾ÑĤ",
        "ÐµÐ»Ð°"
      ],
      [
        "ĠÐ¿ÑĢÐ¾Ð¸Ð·",
        "Ð½ÐµÑģ"
      ],
      [
        "Ð°Ð²",
        "ÑĪÐ¸ÑģÑĮ"
      ],
      [
        "ĠÑģÑĤ",
        "Ð¾Ð»ÑĮ"
      ],
      [
        "ĠÑģÑĭ",
        "Ð½Ð°"
      ],
      [
        "ĠÐ±Ñĭ",
        "ÑģÑĤÑĢ"
      ],
      [
        "ĠÑģÐ¼",
        "ÑĥÑĤ"
      ],
      [
        "ĠÐĽ",
        "Ð¾Ð³"
      ],
      [
        "ĠÑĪ",
        "Ð°ÑĢ"
      ],
      [
        "Ð°Ð¶Ð´",
        "Ñĭ"
      ],
      [
        "ÑĮ",
        "ÑĤÐµ"
      ],
      [
        "ĠÐ·Ð¾Ð»",
        "Ð¾ÑĤ"
      ],
      [
        "ĠÐ¾Ð±",
        "Ðµ"
      ],
      [
        "ĠÐ¾Ð±ÑĢÐ°Ð·",
        "Ð¾Ð¼"
      ],
      [
        "ĠÐ²Ð¾Ð»Ð¾Ñģ",
        "Ñĭ"
      ],
      [
        "Ð½",
        "ÐµÐ»"
      ],
      [
        "Ñĩ",
        "ÐµÑģÐº"
      ],
      [
        "ĠÐ",
        "©"
      ],
      [
        "Ð½Ð¸",
        "ÐµÐ¼"
      ],
      [
        "ĠÐ½ÐµÐ²",
        "Ð¾Ð·Ð¼"
      ],
      [
        "ĠÑģ",
        "Ð¼ÑĥÑī"
      ],
      [
        "ĠÐ½Ð°Ñĩ",
        "Ð¸Ð½"
      ],
      [
        "ĠÐ½Ð°Ñĩ",
        "Ð°Ð»ÑĮ"
      ],
      [
        "Ð°Ð²ÑĪ",
        "ÐµÐ³Ð¾"
      ],
      [
        "Ð°Ð½",
        "Ð½Ð¾Ðµ"
      ],
      [
        "ĠÐ¼Ð¾Ð³",
        "Ð»Ð¸"
      ],
      [
        "ĠÑĤÑıÐ¶",
        "ÐµÐ»Ð¾"
      ],
      [
        "ĠÐŁÐ¾Ñģ",
        "Ð»Ðµ"
      ],
      [
        "ĠÐ½Ð°",
        "ÑģÐ»"
      ],
      [
        "ĠÐŁ",
        "ÑĢÐ°Ð²"
      ],
      [
        "ÐµÐ¿",
        "ÐµÑĤ"
      ],
      [
        "ĠÐ´ÑĢÑĥÐ³Ð¾",
        "Ðµ"
      ],
      [
        "ĠÐ¾Ð±",
        "ÑıÐ·"
      ],
      [
        "ĠÑģÐ¾Ð±",
        "ÑģÑĤÐ²ÐµÐ½"
      ],
      [
        "ĠÑĥÐ²",
        "Ð°Ð¶"
      ],
      [
        "ĠÐ´Ð°Ð»",
        "ÐµÐºÐ¾"
      ],
      [
        "ĠÑĥÐ³",
        "Ð¾Ð»"
      ],
      [
        "Ð½ÐµÐ·",
        "Ð°Ð¿"
      ],
      [
        "ÑĢ",
        "Ð°Ð»"
      ],
      [
        "Ð¾Ñĩ",
        "ÐºÐ¸"
      ],
      [
        "ĠÐ³Ð¾Ð»Ð¾Ð²",
        "Ñĭ"
      ],
      [
        "Ð¾Ð»",
        "Ðº"
      ],
      [
        "ĠÐºÐ°Ðº",
        "ÑĥÑİ"
      ],
      [
        "ĠÐ·",
        "Ð°Ð¶"
      ],
      [
        "ĠÑģÐ»",
        "Ð°Ð´"
      ],
      [
        "ĠÐ¿ÑĢ",
        "Ðµ"
      ],
      [
        "ĠÑĢ",
        "Ð¾Ð¼"
      ],
      [
        "ĠÐ½Ð°",
        "Ñħ"
      ],
      [
        "ĠÑģÑĤ",
        "ÑĥÐ»"
      ],
      [
        "ĠÐĵ",
        "Ð´Ðµ"
      ],
      [
        "ĠÐ£",
        "Ð¶"
      ],
      [
        "ĠÐ²Ð¾Ð·Ð¼",
        "Ð¾Ð¶"
      ],
      [
        "ĠÐĿÐµÑħÐ»ÑİÐ´",
        "Ð¾Ð²"
      ],
      [
        "ĠÐ±",
        "ÐµÐ¶"
      ],
      [
        "ĠÑĢ",
        "Ð°Ð½"
      ],
      [
        "ĠÐ²ÐµÐ»",
        "Ð¸Ñĩ"
      ],
      [
        "Ð»Ð¸",
        "Ð·"
      ],
      [
        "Ð¾Ð½",
        "Ðµ"
      ],
      [
        "Ð¾Ð¶",
        "Ñĥ"
      ],
      [
        "ĠÑģÑĤÐ¾Ð»",
        "Ð°"
      ],
      [
        "ĠÐ²ÐµÑģÑĮ",
        "Ð¼Ð°"
      ],
      [
        "ĠÐĿ",
        "Ð¸Ñĩ"
      ],
      [
        "ĠÑģÑĤ",
        "Ð¸Ñħ"
      ],
      [
        "ÑĥÐ¼",
        "Ñı"
      ],
      [
        "ĠÐ¾Ð´",
        "Ð½Ð¸Ð¼"
      ],
      [
        "ÑĥÐ½",
        "Ð´"
      ],
      [
        "ĠÐ±ÐµÑģÐ¿",
        "Ð¾ÐºÐ¾Ð¹"
      ],
      [
        "ĠÐ²Ð¾ÑģÐºÐ»Ð¸",
        "ÐºÐ½ÑĥÐ»"
      ],
      [
        "Ð»",
        "Ð°Ðº"
      ],
      [
        "Ð°Ð½",
        "Ñı"
      ],
      [
        "ĠÐ¿Ð¾Ð»",
        "ÐºÐ¾Ð²"
      ],
      [
        "ĠÑĤ",
        "Ñı"
      ],
      [
        "ĠÐ¿Ð¾",
        "Ñį"
      ],
      [
        "ĠÐ¾Ñĩ",
        "ÐµÐ²"
      ],
      [
        "ĠÐ¼ÑĥÐ¶",
        "Ñĩ"
      ],
      [
        "ĠÐ¿Ð¾Ðº",
        "Ð°Ð·ÑĭÐ²"
      ],
      [
        "ĠÐ²Ð¿",
        "ÐµÑĩÐ°ÑĤ"
      ],
      [
        "ĠÑĢÐ°Ð±",
        "Ð¾Ñĩ"
      ],
      [
        "Ð»",
        "ÑĭÐ¹"
      ],
      [
        "ĠÑģÐ°Ð¼",
        "ÑĭÐ¹"
      ],
      [
        "ĠÑħÐ¾ÑĤ",
        "Ð¸ÑĤÐµ"
      ],
      [
        "ĠÐĿÐ°ÑĤ",
        "Ð°Ð»ÑĮ"
      ],
      [
        "ĠÑĩ",
        "Ð°Ð¹"
      ],
      [
        "Ð¾Ð½",
        "Ñĥ"
      ],
      [
        "ĠÐ¿Ð¾Ð´",
        "Ð´"
      ],
      [
        "ĠÐ¼",
        "ÑĥÐ·"
      ],
      [
        "ĠÐ¸Ð·",
        "Ð´"
      ],
      [
        "Ð²",
        "ÐµÐ´"
      ],
      [
        "ĠÐŁÐµÑĤ",
        "ÐµÑĢÐ±ÑĥÑĢÐ³"
      ],
      [
        "ĠÐ¾ÑĤÐº",
        "Ð°Ð·"
      ],
      [
        "ĠÐ¸Ð´",
        "ÐµÑĤ"
      ],
      [
        "ĠÐ¾Ð¶",
        "Ð¸Ð²"
      ],
      [
        "ĠÐĿÐ°ÑģÑĤ",
        "Ð°ÑģÑĮ"
      ],
      [
        "ĠÑģ",
        "Ð°Ð¿"
      ],
      [
        "Ðº",
        "Ð°Ðº"
      ],
      [
        "ĠÐ¼",
        "Ð¸Ð³"
      ],
      [
        "Ð¸Ð»",
        "Ð¾Ð²"
      ],
      [
        "ĠÐ½",
        "Ð¾Ð¶"
      ],
      [
        "Ñĩ",
        "Ð°ÑĤ"
      ],
      [
        "ĠÑģÐ»",
        "Ð¾Ð¶"
      ],
      [
        "ĠÐ¿Ð¾ÐºÐ°Ð·",
        "Ð°Ð»Ð¾ÑģÑĮ"
      ],
      [
        "ÑĥÐ¶",
        "ÐµÐ»Ð¸"
      ],
      [
        "ĠÐ»ÑİÐ±",
        "Ð¸ÑĤ"
      ],
      [
        "Ð»ÐµÐ½",
        "Ð½ÑĭÐ¹"
      ],
      [
        "Ð¾Ð»ÑĮ",
        "Ð½Ð¾"
      ],
      [
        "ĠÐ¿ÐµÑĢ",
        "ÐµÐº"
      ],
      [
        "ĠÐ³Ð¾Ð²Ð¾ÑĢ",
        "Ñı"
      ],
      [
        "ĠÐ½Ð°Ðº",
        "Ð»Ð¾Ð½"
      ],
      [
        "ĠÐĶ",
        "Ð°ÑĢ"
      ],
      [
        "ĠÑģÑĤÑĢ",
        "Ð¾Ð³Ð¾"
      ],
      [
        "Ð²ÐµÑĢ",
        "Ñħ"
      ],
      [
        "ĠÐºÐ½Ñı",
        "Ð¶"
      ],
      [
        "ĠÐ²",
        "ÑģÑĤÐ°Ð²"
      ],
      [
        "ĠÐºÐ°Ðº",
        "Ð¾Ð³Ð¾"
      ],
      [
        "ĠÐ¶ÐµÐ½Ñī",
        "Ð¸Ð½Ñĭ"
      ],
      [
        "ĠÑħ",
        "Ð°ÑĢ"
      ],
      [
        "ĠÐ¾Ð´",
        "Ð½Ð¾Ð¼"
      ],
      [
        "Ð¾Ð»",
        "ÐµÑĤ"
      ],
      [
        "ĠÐ¿ÑĢÐ°Ð²",
        "Ð¾"
      ],
      [
        "Ð´",
        "ÐµÑĤ"
      ],
      [
        "Ð°Ð½",
        "Ð½Ð°Ñı"
      ],
      [
        "ĠÐ²Ñģ",
        "Ð»ÐµÐ´"
      ],
      [
        "ĠÐ´Ð¾Ð»Ð¶",
        "Ð½Ñĭ"
      ],
      [
        "ĠÐºÑĢ",
        "ÑĥÐ¶"
      ],
      [
        "ĠÑģÐ¿",
        "ÑĢÐ°Ð²"
      ],
      [
        "ĠÐ±ÐµÑĢ",
        "ÐµÐ³"
      ],
      [
        "ĠÐ½Ð°Ð¼",
        "ÐµÑĢ"
      ],
      [
        "ĠÐ²Ð¾Ð·",
        "Ð±"
      ],
      [
        "Ñİ",
        "Ð¼"
      ],
      [
        "ĠÐ½Ð°",
        "ÑĪÐ¸"
      ],
      [
        "Ð¾Ð²Ð°",
        "Ð½Ð¸Ñı"
      ],
      [
        "ĠÐ³ÑĢ",
        "ÑĥÑģÑĤ"
      ],
      [
        "ĠÑģÑĤÐ¾",
        "ÑıÐ»Ð°"
      ],
      [
        "ĠÑģÑĤÑĢÐ°ÑĪ",
        "Ð½Ð¾"
      ],
      [
        "Ð¾Ð´",
        "Ð½Ð¾"
      ],
      [
        "ĠÐ¿Ð¾Ð´",
        "ÑĬ"
      ],
      [
        "ĠÐ³Ð¾Ð»",
        "Ð¾Ð²Ð°"
      ],
      [
        "ĠÐ·Ð°Ðº",
        "Ð»ÑİÑĩ"
      ],
      [
        "ÐµÑĢ",
        "Ñĥ"
      ],
      [
        "Ð¾ÑĢ",
[...]
